{
  "version": "1.0",
  "truncation": null,
  "padding": null,
  "added_tokens": [
    {
      "id": 0,
      "content": "[PAD]",
      "single_word": false,
      "lstrip": false,
      "rstrip": false,
      "normalized": false,
      "special": true
    },
    {
      "id": 1,
      "content": "[UNK]",
      "single_word": false,
      "lstrip": false,
      "rstrip": false,
      "normalized": false,
      "special": true
    },
    {
      "id": 2,
      "content": "[BOS]",
      "single_word": false,
      "lstrip": false,
      "rstrip": false,
      "normalized": false,
      "special": true
    },
    {
      "id": 3,
      "content": "[EOS]",
      "single_word": false,
      "lstrip": false,
      "rstrip": false,
      "normalized": false,
      "special": true
    },
    {
      "id": 4,
      "content": "[SEP]",
      "single_word": false,
      "lstrip": false,
      "rstrip": false,
      "normalized": false,
      "special": true
    },
    {
      "id": 5,
      "content": "[MASK]",
      "single_word": false,
      "lstrip": false,
      "rstrip": false,
      "normalized": false,
      "special": true
    }
  ],
  "normalizer": null,
  "pre_tokenizer": {
    "type": "ByteLevel",
    "add_prefix_space": false,
    "trim_offsets": true,
    "use_regex": true
  },
  "post_processor": null,
  "decoder": {
    "type": "ByteLevel",
    "add_prefix_space": true,
    "trim_offsets": true,
    "use_regex": true
  },
  "model": {
    "type": "BPE",
    "dropout": null,
    "unk_token": null,
    "continuing_subword_prefix": null,
    "end_of_word_suffix": null,
    "fuse_unk": false,
    "byte_fallback": false,
    "ignore_merges": false,
    "vocab": {
      "[PAD]": 0,
      "[UNK]": 1,
      "[BOS]": 2,
      "[EOS]": 3,
      "[SEP]": 4,
      "[MASK]": 5,
      "!": 6,
      "\"": 7,
      "#": 8,
      "$": 9,
      "%": 10,
      "&": 11,
      "'": 12,
      "(": 13,
      ")": 14,
      "*": 15,
      "+": 16,
      ",": 17,
      "-": 18,
      ".": 19,
      "/": 20,
      "0": 21,
      "1": 22,
      "2": 23,
      "3": 24,
      "4": 25,
      "5": 26,
      "6": 27,
      "7": 28,
      "8": 29,
      "9": 30,
      ":": 31,
      ";": 32,
      "<": 33,
      "=": 34,
      ">": 35,
      "?": 36,
      "@": 37,
      "A": 38,
      "B": 39,
      "C": 40,
      "D": 41,
      "E": 42,
      "F": 43,
      "G": 44,
      "H": 45,
      "I": 46,
      "J": 47,
      "K": 48,
      "L": 49,
      "M": 50,
      "N": 51,
      "O": 52,
      "P": 53,
      "Q": 54,
      "R": 55,
      "S": 56,
      "T": 57,
      "U": 58,
      "V": 59,
      "W": 60,
      "X": 61,
      "Y": 62,
      "Z": 63,
      "[": 64,
      "\\": 65,
      "]": 66,
      "^": 67,
      "_": 68,
      "`": 69,
      "a": 70,
      "b": 71,
      "c": 72,
      "d": 73,
      "e": 74,
      "f": 75,
      "g": 76,
      "h": 77,
      "i": 78,
      "j": 79,
      "k": 80,
      "l": 81,
      "m": 82,
      "n": 83,
      "o": 84,
      "p": 85,
      "q": 86,
      "r": 87,
      "s": 88,
      "t": 89,
      "u": 90,
      "v": 91,
      "w": 92,
      "x": 93,
      "y": 94,
      "z": 95,
      "{": 96,
      "|": 97,
      "}": 98,
      "~": 99,
      "\u00a1": 100,
      "\u00a2": 101,
      "\u00a3": 102,
      "\u00a4": 103,
      "\u00a5": 104,
      "\u00a6": 105,
      "\u00a7": 106,
      "\u00a8": 107,
      "\u00a9": 108,
      "\u00aa": 109,
      "\u00ab": 110,
      "\u00ac": 111,
      "\u00ae": 112,
      "\u00af": 113,
      "\u00b0": 114,
      "\u00b1": 115,
      "\u00b2": 116,
      "\u00b3": 117,
      "\u00b4": 118,
      "\u00b5": 119,
      "\u00b6": 120,
      "\u00b7": 121,
      "\u00b8": 122,
      "\u00b9": 123,
      "\u00ba": 124,
      "\u00bb": 125,
      "\u00bc": 126,
      "\u00bd": 127,
      "\u00be": 128,
      "\u00bf": 129,
      "\u00c2": 130,
      "\u00c3": 131,
      "\u00c4": 132,
      "\u00c5": 133,
      "\u00c6": 134,
      "\u00c7": 135,
      "\u00c8": 136,
      "\u00c9": 137,
      "\u00ca": 138,
      "\u00cb": 139,
      "\u00cc": 140,
      "\u00cd": 141,
      "\u00ce": 142,
      "\u00cf": 143,
      "\u00d0": 144,
      "\u00d1": 145,
      "\u00d2": 146,
      "\u00d3": 147,
      "\u00d4": 148,
      "\u00d5": 149,
      "\u00d6": 150,
      "\u00d7": 151,
      "\u00d8": 152,
      "\u00d9": 153,
      "\u00da": 154,
      "\u00db": 155,
      "\u00dc": 156,
      "\u00de": 157,
      "\u00e0": 158,
      "\u00e1": 159,
      "\u00e2": 160,
      "\u00e3": 161,
      "\u00e4": 162,
      "\u00e5": 163,
      "\u00e6": 164,
      "\u00e7": 165,
      "\u00e8": 166,
      "\u00e9": 167,
      "\u00ea": 168,
      "\u00eb": 169,
      "\u00ec": 170,
      "\u00ed": 171,
      "\u00ee": 172,
      "\u00ef": 173,
      "\u00f0": 174,
      "\u00f3": 175,
      "\u0120": 176,
      "\u0121": 177,
      "\u0122": 178,
      "\u0123": 179,
      "\u0124": 180,
      "\u0125": 181,
      "\u0126": 182,
      "\u0127": 183,
      "\u0128": 184,
      "\u0129": 185,
      "\u012a": 186,
      "\u012b": 187,
      "\u012c": 188,
      "\u012d": 189,
      "\u012e": 190,
      "\u012f": 191,
      "\u0130": 192,
      "\u0131": 193,
      "\u0132": 194,
      "\u0133": 195,
      "\u0134": 196,
      "\u0135": 197,
      "\u0136": 198,
      "\u0137": 199,
      "\u0138": 200,
      "\u0139": 201,
      "\u013a": 202,
      "\u013b": 203,
      "\u013c": 204,
      "\u013d": 205,
      "\u013e": 206,
      "\u013f": 207,
      "\u0140": 208,
      "\u0141": 209,
      "\u0142": 210,
      "\u0143": 211,
      "\u0120t": 212,
      "\u0120a": 213,
      "he": 214,
      "in": 215,
      "re": 216,
      "\u0120the": 217,
      "on": 218,
      "er": 219,
      "\u0120s": 220,
      "\u0120w": 221,
      "at": 222,
      "\u0120o": 223,
      "en": 224,
      "\u0120c": 225,
      "it": 226,
      "is": 227,
      "an": 228,
      "or": 229,
      "\u0120b": 230,
      "ed": 231,
      "es": 232,
      "\u0120f": 233,
      "ing": 234,
      "\u0120p": 235,
      "ou": 236,
      "\u0120an": 237,
      "al": 238,
      "\u0120to": 239,
      "ar": 240,
      "\u0120m": 241,
      "\u0120in": 242,
      "\u0120of": 243,
      "\u0120d": 244,
      "\u0120h": 245,
      "\u00e2\u0122": 246,
      "as": 247,
      "ic": 248,
      "\u0120and": 249,
      "\u0120th": 250,
      "le": 251,
      "om": 252,
      "ion": 253,
      "ll": 254,
      "ent": 255,
      "\u0120n": 256,
      "\u0120l": 257,
      "\u0120re": 258,
      "st": 259,
      "ve": 260,
      "ly": 261,
      "\u0120e": 262,
      "\u0120be": 263,
      "\u0120g": 264,
      "ro": 265,
      "id": 266,
      "ac": 267,
      "ut": 268,
      "ot": 269,
      "\u0120T": 270,
      "\u0120that": 271,
      "\u0120I": 272,
      "\u0120on": 273,
      "ay": 274,
      "\u0120S": 275,
      "\u0120is": 276,
      "im": 277,
      "am": 278,
      "et": 279,
      "ad": 280,
      "ow": 281,
      "\u0120for": 282,
      "ig": 283,
      "se": 284,
      "\u00e2\u0122\u013b": 285,
      "ver": 286,
      "\u0120A": 287,
      "ld": 288,
      "ct": 289,
      "ur": 290,
      "\u0120C": 291,
      "\u0120u": 292,
      "\u0120st": 293,
      "\u0120y": 294,
      "\u0120it": 295,
      "\u0120he": 296,
      "ir": 297,
      "ation": 298,
      "\u0120wh": 299,
      "ith": 300,
      "\u0120M": 301,
      "ce": 302,
      "ter": 303,
      "ol": 304,
      "\u0120we": 305,
      "il": 306,
      "\u0120with": 307,
      "\u0120as": 308,
      "\u0120B": 309,
      "ch": 310,
      "ill": 311,
      "nd": 312,
      "\u0120was": 313,
      "\u0120P": 314,
      "ers": 315,
      "\u0120you": 316,
      "ke": 317,
      "\u0120\u00e2\u0122": 318,
      "\u0120con": 319,
      "\u0120de": 320,
      "\u0120r": 321,
      "her": 322,
      "if": 323,
      "ate": 324,
      "ag": 325,
      "\u0120at": 326,
      "\u0120W": 327,
      "\u0120ha": 328,
      "\u0120H": 329,
      "\u0120se": 330,
      "ul": 331,
      "ore": 332,
      "\u0120pro": 333,
      "pp": 334,
      "ment": 335,
      "\u01201": 336,
      "ri": 337,
      "\u0120are": 338,
      "est": 339,
      "and": 340,
      "\u0120com": 341,
      "\u0120D": 342,
      "ist": 343,
      "us": 344,
      "op": 345,
      "\u0120The": 346,
      "ain": 347,
      "\u0120R": 348,
      "\u01202": 349,
      "igh": 350,
      "rom": 351,
      "ort": 352,
      "\u0120(": 353,
      "od": 354,
      "\u0120F": 355,
      "\u0120ne": 356,
      "um": 357,
      "\u0120ex": 358,
      "un": 359,
      "res": 360,
      "\u00e2\u0122\u013f": 361,
      "\u0120not": 362,
      "ab": 363,
      "\u0120N": 364,
      "\u0120v": 365,
      "ity": 366,
      "ess": 367,
      "ould": 368,
      "em": 369,
      "\u0120have": 370,
      "\u0120or": 371,
      "\u0120G": 372,
      "th": 373,
      "\u0120by": 374,
      "ant": 375,
      "os": 376,
      "\u0120from": 377,
      "ive": 378,
      "\u0120al": 379,
      "el": 380,
      "'s": 381,
      "\u0120su": 382,
      "oc": 383,
      "art": 384,
      "\u0120sh": 385,
      "\u0120L": 386,
      "nt": 387,
      "\u0120this": 388,
      "qu": 389,
      "ight": 390,
      "ust": 391,
      "pe": 392,
      "\u0120le": 393,
      "ies": 394,
      "end": 395,
      "\u0120E": 396,
      "\u0120ch": 397,
      "\u0120sa": 398,
      "out": 399,
      "The": 400,
      "\u0120ab": 401,
      "all": 402,
      "red": 403,
      "ack": 404,
      "ie": 405,
      "00": 406,
      "\u0120\u00e2\u0122\u013e": 407,
      "ally": 408,
      "\u0120has": 409,
      "\u0120pl": 410,
      "\u0120go": 411,
      "\u0120J": 412,
      "ard": 413,
      "iv": 414,
      "ap": 415,
      "ome": 416,
      "\u0120his": 417,
      "gh": 418,
      "\u0120O": 419,
      "ost": 420,
      "our": 421,
      "ear": 422,
      "\u0120tr": 423,
      "\u0120j": 424,
      "ast": 425,
      "ak": 426,
      "ud": 427,
      "\u0120do": 428,
      "\u0120they": 429,
      "\u0120but": 430,
      "\u0120wor": 431,
      "rou": 432,
      "ge": 433,
      "\u0120can": 434,
      "\u0120said": 435,
      "\u0120U": 436,
      "\u0120whe": 437,
      "\u0120will": 438,
      "\u0120k": 439,
      "ich": 440,
      "\u0120\"": 441,
      "ok": 442,
      "\u0120all": 443,
      "\u0120who": 444,
      "ide": 445,
      "\u0120int": 446,
      "ame": 447,
      "ans": 448,
      "ial": 449,
      "ther": 450,
      "\u0120out": 451,
      "ff": 452,
      "\u0120their": 453,
      "ice": 454,
      "ong": 455,
      "ect": 456,
      "pl": 457,
      "pt": 458,
      "ure": 459,
      "one": 460,
      "\u0120more": 461,
      "age": 462,
      "act": 463,
      "ions": 464,
      "ous": 465,
      "ike": 466,
      "\u0120up": 467,
      "\u0120me": 468,
      "ine": 469,
      "\u0120ad": 470,
      "\u0120about": 471,
      "ated": 472,
      "ber": 473,
      "ra": 474,
      "\u0120so": 475,
      "\u0120were": 476,
      "\u0120us": 477,
      "\u0120one": 478,
      "\u0120had": 479,
      "ime": 480,
      "are": 481,
      "ia": 482,
      "og": 483,
      "ub": 484,
      "ep": 485,
      "\u0120K": 486,
      "\u0120would": 487,
      "cc": 488,
      "\u012020": 489,
      "\u0120which": 490,
      "\u0120im": 491,
      "ake": 492,
      "\u0120cl": 493,
      "ind": 494,
      "ue": 495,
      "iz": 496,
      "\u0120ag": 497,
      "\u0120cont": 498,
      "\u0120comp": 499,
      "very": 500,
      "\u0120off": 501,
      "\u0120te": 502,
      "\u0120un": 503,
      "\u0120been": 504,
      "\u0120en": 505,
      "per": 506,
      "ign": 507,
      "\u0120St": 508,
      "au": 509,
      "so": 510,
      "\u0120Th": 511,
      "ace": 512,
      "ary": 513,
      "ew": 514,
      "ip": 515,
      "\u0120year": 516,
      "ven": 517,
      "\u0120inc": 518,
      "\u0120like": 519,
      "ere": 520,
      "ook": 521,
      "ays": 522,
      "\u0120man": 523,
      "\u0120pe": 524,
      "ose": 525,
      "\u0120per": 526,
      "ry": 527,
      "\u0120res": 528,
      "ite": 529,
      "\u0120sp": 530,
      "ord": 531,
      "able": 532,
      "ass": 533,
      "\u0120other": 534,
      "ire": 535,
      "mer": 536,
      "\u0120In": 537,
      "\u0120some": 538,
      "ople": 539,
      "ib": 540,
      "ence": 541,
      "ile": 542,
      "\u0120there": 543,
      "\u0120over": 544,
      "\u0120201": 545,
      "ations": 546,
      "ks": 547,
      "\u0120new": 548,
      "ress": 549,
      "ult": 550,
      "\u0120than": 551,
      "own": 552,
      "ical": 553,
      "ough": 554,
      "ance": 555,
      "\u0120bec": 556,
      "\u0120dis": 557,
      "ount": 558,
      "int": 559,
      "ru": 560,
      "\u0120also": 561,
      "\u0120ar": 562,
      "\u0120them": 563,
      "port": 564,
      "\u0120what": 565,
      "\u0120app": 566,
      "\u0120when": 567,
      "\u0120part": 568,
      "ree": 569,
      "fter": 570,
      "\u0120people": 571,
      "ail": 572,
      "\u0120your": 573,
      "ond": 574,
      "\u0120sc": 575,
      "orm": 576,
      "\u0120qu": 577,
      "\u0120Ch": 578,
      "ase": 579,
      "av": 580,
      "\u0120just": 581,
      "\u0120any": 582,
      "\u0120Y": 583,
      "\u0120kn": 584,
      "\u0120It": 585,
      "\u0120its": 586,
      "\u0120time": 587,
      "ach": 588,
      "lic": 589,
      "\u0120rec": 590,
      "\u0120her": 591,
      "ens": 592,
      "\u0120if": 593,
      "\u0120V": 594,
      "reat": 595,
      "\u0120my": 596,
      "\u0120get": 597,
      ".\u00e2\u0122\u013f": 598,
      "\u01203": 599,
      "\u0120into": 600,
      "ian": 601,
      "vel": 602,
      "ound": 603,
      "irst": 604,
      "\u0120no": 605,
      "\u0120tw": 606,
      "ction": 607,
      "\u0120work": 608,
      "du": 609,
      "ory": 610,
      "ings": 611,
      "ident": 612,
      "\u0120our": 613,
      "ition": 614,
      "ors": 615,
      "\u0120co": 616,
      "ick": 617,
      "ob": 618,
      "ang": 619,
      "aw": 620,
      "\u0120pre": 621,
      "\u012019": 622,
      "ause": 623,
      "ark": 624,
      "ink": 625,
      "\u0120pol": 626,
      "ish": 627,
      "\u0120play": 628,
      "ates": 629,
      "ade": 630,
      "\u0120she": 631,
      "vers": 632,
      "\u0120ro": 633,
      "itt": 634,
      "\u0120after": 635,
      "\u0120-": 636,
      "amp": 637,
      ",\u00e2\u0122\u013f": 638,
      "wn": 639,
      "ove": 640,
      "\u0120He": 641,
      "\u0120could": 642,
      "\u0120first": 643,
      "ious": 644,
      "ne": 645,
      "\u0120him": 646,
      "\u0120how": 647,
      "\u0120acc": 648,
      "nder": 649,
      "ons": 650,
      "\u0120pr": 651,
      "\u0120po": 652,
      "\u0120fe": 653,
      "ild": 654,
      "\u0120only": 655,
      "'t": 656,
      "hed": 657,
      "\u0120att": 658,
      "ict": 659,
      "\u0120comm": 660,
      "\u0120two": 661,
      "\u0120spe": 662,
      "\u00e2\u0122\u013e": 663,
      "hing": 664,
      "we": 665,
      "erv": 666,
      "\u0120act": 667,
      "ov": 668,
      ".\"": 669,
      "\u0120bl": 670,
      "ft": 671,
      "\u0120dec": 672,
      "form": 673,
      "\u0120bet": 674,
      "\u0120back": 675,
      "ning": 676,
      "\u0120most": 677,
      "te": 678,
      "ood": 679,
      "ces": 680,
      "\u0120am": 681,
      "\u0120did": 682,
      "ck": 683,
      "round": 684,
      "\u0120\u00e2\u0122\u0135": 685,
      "ater": 686,
      "iff": 687,
      "rough": 688,
      "oy": 689,
      "\u01204": 690,
      "\u0120des": 691,
      "\u0120again": 692,
      "\u0120$": 693,
      "rit": 694,
      "day": 695,
      "\u0120under": 696,
      "\u0120cons": 697,
      "ublic": 698,
      "\u0120want": 699,
      "ual": 700,
      "ise": 701,
      "lud": 702,
      "sel": 703,
      "\u0120now": 704,
      "\u0120years": 705,
      "ull": 706,
      "man": 707,
      "iss": 708,
      "\u0120even": 709,
      "\u0120because": 710,
      "ents": 711,
      "tern": 712,
      "\u0120inv": 713,
      "\u0120know": 714,
      "\u0120need": 715,
      ",\"": 716,
      "ced": 717,
      "ec": 718,
      "\u0120\u00e2\u0122\u0136": 719,
      "\u0120ind": 720,
      "\u0120We": 721,
      "old": 722,
      "\u0120sec": 723,
      "\u0120see": 724,
      "\u0120add": 725,
      "\u0120Un": 726,
      "fore": 727,
      "ments": 728,
      "uch": 729,
      "\u01205": 730,
      "urn": 731,
      "\u0120every": 732,
      "\u0120supp": 733,
      "pect": 734,
      "\u0120em": 735,
      "\u0120make": 736,
      "In": 737,
      "vern": 738,
      "\u0120these": 739,
      "oll": 740,
      "ock": 741,
      "ational": 742,
      "ject": 743,
      "\u00e2\u0122\u0136": 744,
      "\u0120where": 745,
      "\u0120ev": 746,
      "xt": 747,
      "oss": 748,
      "\u0120bu": 749,
      "Th": 750,
      "\u0120And": 751,
      "\u0120right": 752,
      "\u0120call": 753,
      "\u0120way": 754,
      "\u0120look": 755,
      "\u0120being": 756,
      "lect": 757,
      "\u0120don": 758,
      "\u0120may": 759,
      "\u0120then": 760,
      "ating": 761,
      "row": 762,
      "ied": 763,
      "\u0120rem": 764,
      "\u0120many": 765,
      "ily": 766,
      "\u0120def": 767,
      "ased": 768,
      "ont": 769,
      "\u0120diff": 770,
      "\u0120rel": 771,
      "\u0120includ": 772,
      "\u0120pres": 773,
      "iew": 774,
      "meric": 775,
      "\u0120But": 776,
      "ng": 777,
      "ath": 778,
      "\u0120fl": 779,
      "\u0120reg": 780,
      "ower": 781,
      "\u0120think": 782,
      "..": 783,
      "ump": 784,
      "ell": 785,
      "ited": 786,
      "aking": 787,
      "ason": 788,
      "\u0120imp": 789,
      "\u0120sy": 790,
      "\u0120should": 791,
      "\u0120say": 792,
      "\u0120through": 793,
      "rib": 794,
      "\u0120those": 795,
      "\u0120very": 796,
      "uring": 797,
      "\u0120much": 798,
      "les": 799,
      "\u0120Tr": 800,
      "\u0120last": 801,
      ").": 802,
      "\u0120state": 803,
      "other": 804,
      "ities": 805,
      "\u0120Wh": 806,
      "\u0120This": 807,
      "ty": 808,
      "\u0120[": 809,
      "ative": 810,
      "ific": 811,
      "arg": 812,
      "\u0120count": 813,
      "\u0120well": 814,
      "\u0120bel": 815,
      "oth": 816,
      "\u0120200": 817,
      "\u0120show": 818,
      "ss": 819,
      "hen": 820,
      "ange": 821,
      "\u0120ph": 822,
      "\u0120own": 823,
      "arly": 824,
      "als": 825,
      "ics": 826,
      "\u0120govern": 827,
      "\u0120br": 828,
      "\u0120down": 829,
      "\u0120end": 830,
      "ince": 831,
      "und": 832,
      "\u0120Americ": 833,
      "\u0120does": 834,
      "\u0120report": 835,
      "\u0120ass": 836,
      "\u0120use": 837,
      "ting": 838,
      "\u0120mon": 839,
      "ward": 840,
      "\u0120before": 841,
      "up": 842,
      "\u0120long": 843,
      "omet": 844,
      "ible": 845,
      "ters": 846,
      "ble": 847,
      "\u0120New": 848,
      "\u0120ke": 849,
      "\u0120start": 850,
      "gr": 851,
      "ts": 852,
      "ues": 853,
      "ife": 854,
      "ix": 855,
      "oun": 856,
      "\u0120made": 857,
      "ener": 858,
      "\u0120such": 859,
      "olog": 860,
      "ms": 861,
      "\u0120fin": 862,
      "),": 863,
      "tain": 864,
      "\u0120sm": 865,
      "ually": 866,
      "\u0120team": 867,
      "\u0120going": 868,
      "ars": 869,
      "erson": 870,
      "ren": 871,
      "ility": 872,
      "It": 873,
      "\u0120world": 874,
      "ful": 875,
      "\u0120hel": 876,
      "\u0120good": 877,
      "\u0120ac": 878,
      "ek": 879,
      "\u0120stud": 880,
      "com": 881,
      "its": 882,
      "ists": 883,
      "ork": 884,
      "\u0120sur": 885,
      "\u0120against": 886,
      "\u0120sub": 887,
      "\u01206": 888,
      "\u0120gu": 889,
      "stem": 890,
      "\u0120ent": 891,
      "\u0120eff": 892,
      "\u0120lead": 893,
      "\u0120set": 894,
      "\u0120law": 895,
      "000": 896,
      "\u0120min": 897,
      "\u0120gr": 898,
      "roup": 899,
      "\u0120game": 900,
      "gan": 901,
      "ys": 902,
      "imes": 903,
      "ism": 904,
      "\u0120prov": 905,
      "ween": 906,
      "\u0120point": 907,
      "\u0120cr": 908,
      "ax": 909,
      "\u0120still": 910,
      "\u0120while": 911,
      "alk": 912,
      "\u0120says": 913,
      "\u0120str": 914,
      "\u0120produ": 915,
      "cy": 916,
      "li": 917,
      "illion": 918,
      "ef": 919,
      "\u0120help": 920,
      "ank": 921,
      "air": 922,
      "\u0120offic": 923,
      "\u0120inst": 924,
      "\u0120conf": 925,
      "\u0120ob": 926,
      "self": 927,
      "\u0120col": 928,
      "\u0120inter": 929,
      "\u0120take": 930,
      "cess": 931,
      "\u0120though": 932,
      "io": 933,
      "ool": 934,
      "\u0120government": 935,
      "\u0120between": 936,
      "read": 937,
      "\u0120sim": 938,
      ".[": 939,
      "\u0120disc": 940,
      "ah": 941,
      "\u0120ed": 942,
      "ever": 943,
      "land": 944,
      "\u0120high": 945,
      "\u0120same": 946,
      "cent": 947,
      "\u0120differe": 948,
      "\u0120num": 949,
      "!!": 950,
      "\u0120op": 951,
      "ollow": 952,
      "\u0120Re": 953,
      "led": 954,
      "arch": 955,
      "ures": 956,
      "ames": 957,
      "ution": 958,
      "\u0120ter": 959,
      "atch": 960,
      "way": 961,
      "any": 962,
      "\u0120cour": 963,
      "ner": 964,
      "\u0120sign": 965,
      "\u0120ins": 966,
      "\u0120around": 967,
      "hip": 968,
      "\u0120mem": 969,
      "ather": 970,
      "\u0120somet": 971,
      "\u0120found": 972,
      "\u0120ref": 973,
      "gg": 974,
      "az": 975,
      "ave": 976,
      "\u0120real": 977,
      "ouse": 978,
      "velop": 979,
      "hes": 980,
      "ee": 981,
      "ci": 982,
      "\u0120trans": 983,
      "\u0120three": 984,
      "ives": 985,
      "\u0120system": 986,
      "oot": 987,
      "--": 988,
      "We": 989,
      "\u0120ser": 990,
      "ved": 991,
      "\u012010": 992,
      "\u0120run": 993,
      "\u0120exp": 994,
      "uss": 995,
      "\u0120used": 996,
      "\u0120Ar": 997,
      "\u0120You": 998,
      "\u0120public": 999,
      "\u0120here": 1000,
      "cept": 1001,
      "\u01207": 1002,
      "ving": 1003,
      "\u0120really": 1004,
      "\u0120med": 1005,
      "\u0120group": 1006,
      "cer": 1007,
      "\u0120Al": 1008,
      "\u0120ext": 1009,
      "con": 1010,
      "\u0120support": 1011,
      "ale": 1012,
      "\u0120mod": 1013,
      "ph": 1014,
      "\u0120fact": 1015,
      "\u0120great": 1016,
      "\u0120spec": 1017,
      "\u0120ret": 1018,
      "ying": 1019,
      "\u0120hand": 1020,
      "ton": 1021,
      "pr": 1022,
      "\u0120exper": 1023,
      "\u0120fam": 1024,
      "ins": 1025,
      "ets": 1026,
      "\u0120cur": 1027,
      "\u0120car": 1028,
      "\u0120cap": 1029,
      "ense": 1030,
      "\u0120happ": 1031,
      "irect": 1032,
      "uth": 1033,
      "min": 1034,
      "\u0120They": 1035,
      "\u0120wom": 1036,
      "\u01208": 1037,
      "\u0120Sh": 1038,
      "\u0120sl": 1039,
      "\u0120day": 1040,
      "alth": 1041,
      "\u0120both": 1042,
      "\u0120read": 1043,
      "\u0120fr": 1044,
      "\u0120find": 1045,
      "\u0120Is": 1046,
      "oh": 1047,
      "ular": 1048,
      "ered": 1049,
      "\u0120Com": 1050,
      "\u0120rep": 1051,
      "\u0120told": 1052,
      "\u0120during": 1053,
      "\u0120iss": 1054,
      "ines": 1055,
      "\u0120det": 1056,
      "ices": 1057,
      "\u0120month": 1058,
      "\u0120cre": 1059,
      "aj": 1060,
      "\u0120war": 1061,
      "iet": 1062,
      "\u0120serv": 1063,
      "ivers": 1064,
      "ared": 1065,
      "\u0120since": 1066,
      "\u0120person": 1067,
      "\u0120develop": 1068,
      "\u0120Le": 1069,
      "\u0120leg": 1070,
      "med": 1071,
      "ically": 1072,
      "ision": 1073,
      "\u0120big": 1074,
      "orth": 1075,
      "ages": 1076,
      "\u0120cent": 1077,
      "\u0120polit": 1078,
      "\u0120Trump": 1079,
      "ording": 1080,
      "the": 1081,
      "\u0120follow": 1082,
      "akes": 1083,
      "\u0120As": 1084,
      "\u0120few": 1085,
      "\u01209": 1086,
      "\u0120gener": 1087,
      "\u0120Cl": 1088,
      "\u0120week": 1089,
      "\u0120lot": 1090,
      "\u0120belie": 1091,
      "ex": 1092,
      "ves": 1093,
      "der": 1094,
      "chool": 1095,
      "get": 1096,
      "\u0120requ": 1097,
      "rent": 1098,
      "\u0120contin": 1099,
      "\u0120expl": 1100,
      "ric": 1101,
      "ized": 1102,
      "\u0120too": 1103,
      "ash": 1104,
      "ness": 1105,
      "\u0120put": 1106,
      "anc": 1107,
      "\u0120power": 1108,
      "\u0120cle": 1109,
      "\u0120cor": 1110,
      "Wh": 1111,
      "\u0120prot": 1112,
      "\u0120resp": 1113,
      "bers": 1114,
      "\u0120soc": 1115,
      "ned": 1116,
      "\u0120fil": 1117,
      "ata": 1118,
      "\u0120inf": 1119,
      "att": 1120,
      "\u0120che": 1121,
      "\u0120plan": 1122,
      "\u0120another": 1123,
      "arge": 1124,
      "\u0120invest": 1125,
      "\u0120If": 1126,
      "\u0120loc": 1127,
      "\u0120opp": 1128,
      "\u0120something": 1129,
      "20": 1130,
      "\u0120Fr": 1131,
      "\u0120'": 1132,
      "\u0120rele": 1133,
      "\u01200": 1134,
      "ention": 1135,
      "\u0120life": 1136,
      "ox": 1137,
      "\u0120poss": 1138,
      "\u0120different": 1139,
      "\u0120head": 1140,
      "\u0120ask": 1141,
      "\u0120commun": 1142,
      "\u0120De": 1143,
      "\u0120vot": 1144,
      "\u0120pass": 1145,
      "ience": 1146,
      "ute": 1147,
      "\u0120things": 1148,
      "ants": 1149,
      "\u0120never": 1150,
      "thing": 1151,
      "ret": 1152,
      "\u0120dep": 1153,
      "ize": 1154,
      "\u0120far": 1155,
      "\u0120met": 1156,
      "\u0120art": 1157,
      "\u0120camp": 1158,
      "\u0120quest": 1159,
      "\u0120might": 1160,
      "iness": 1161,
      "This": 1162,
      "ody": 1163,
      "view": 1164,
      "erest": 1165,
      "\u0120come": 1166,
      "ott": 1167,
      "\u0120percent": 1168,
      "\u0120For": 1169,
      "uc": 1170,
      "\u0120bus": 1171,
      "\u0120An": 1172,
      "\u0120each": 1173,
      "\u0120second": 1174,
      "\u0120mark": 1175,
      "\u0120adv": 1176,
      "\u0120child": 1177,
      "\u0120dem": 1178,
      "\u0120next": 1179,
      "ield": 1180,
      "ross": 1181,
      "nce": 1182,
      "ired": 1183,
      "ama": 1184,
      "istr": 1185,
      "\u0120open": 1186,
      "\u0120That": 1187,
      "\u0120allow": 1188,
      "ik": 1189,
      "\u0120\u00e2\u0122\u013a": 1190,
      "\u0120best": 1191,
      "\u0120feel": 1192,
      "\u0120pri": 1193,
      "ier": 1194,
      "\u0120US": 1195,
      "ittle": 1196,
      "\u0120seem": 1197,
      "\u0120incre": 1198,
      "gy": 1199,
      "ient": 1200,
      "\u0120direct": 1201,
      "\u0120home": 1202,
      "co": 1203,
      "orn": 1204,
      "ple": 1205,
      "\u0120.": 1206,
      "less": 1207,
      "cl": 1208,
      "ital": 1209,
      "\u0120Se": 1210,
      "\u0120contro": 1211,
      "\u0120Rep": 1212,
      "\u0120Pro": 1213,
      "\u0120result": 1214,
      "osed": 1215,
      "\u0120number": 1216,
      "ug": 1217,
      "\u0120wr": 1218,
      "\u0120comple": 1219,
      "\u0120proble": 1220,
      "\u0120import": 1221,
      "oney": 1222,
      "\u0120including": 1223,
      "\u0120top": 1224,
      "\u0120post": 1225,
      "son": 1226,
      "\u0120country": 1227,
      "ately": 1228,
      "\u0120hum": 1229,
      "\u0120without": 1230,
      "\u0120care": 1231,
      "\u0120hard": 1232,
      "gram": 1233,
      "\u0120place": 1234,
      "conom": 1235,
      "chn": 1236,
      "aim": 1237,
      "\u0120av": 1238,
      "\u0120build": 1239,
      "\u0120stand": 1240,
      "tt": 1241,
      "\u0120ide": 1242,
      "\u0120el": 1243,
      "\u0120gl": 1244,
      "\u0120called": 1245,
      "\u0120case": 1246,
      "\u0120million": 1247,
      "\u0120inform": 1248,
      "ably": 1249,
      "rat": 1250,
      "ished": 1251,
      "ral": 1252,
      "\u0120appro": 1253,
      "\u0120got": 1254,
      "But": 1255,
      "\u0120let": 1256,
      "\u0120Bl": 1257,
      "\u0120less": 1258,
      "\u0120four": 1259,
      "riend": 1260,
      "\u0120Ind": 1261,
      "uro": 1262,
      "\u0120recent": 1263,
      "\u0120partic": 1264,
      "\u0120pop": 1265,
      "\u0120ann": 1266,
      "\u0120tri": 1267,
      "\u0120bro": 1268,
      "\u0120better": 1269,
      "ways": 1270,
      "\u0120mov": 1271,
      "\u0120little": 1272,
      "\u0120interest": 1273,
      "\u0120turn": 1274,
      "line": 1275,
      "\u0120mil": 1276,
      "ead": 1277,
      "inal": 1278,
      "ina": 1279,
      "ised": 1280,
      "ering": 1281,
      "\u0120fun": 1282,
      "ling": 1283,
      "10": 1284,
      "\u0120beh": 1285,
      "ature": 1286,
      "app": 1287,
      "me": 1288,
      "ajor": 1289,
      "\u0120dr": 1290,
      "\u0120There": 1291,
      "\u0120full": 1292,
      "\u0120main": 1293,
      "\u0120attack": 1294,
      "\u0120season": 1295,
      "\u0120keep": 1296,
      "\u0120Z": 1297,
      "\u0120rest": 1298,
      "\u0120didn": 1299,
      "ency": 1300,
      "leg": 1301,
      "\u0120police": 1302,
      "\u0120left": 1303,
      "\u0120school": 1304,
      "\u0120prev": 1305,
      "\u0120ear": 1306,
      "\u0120test": 1307,
      "ined": 1308,
      "\u0120move": 1309,
      "\u0120Ob": 1310,
      "\u0120effect": 1311,
      "\u0120win": 1312,
      "ract": 1313,
      "\u0120American": 1314,
      "\u0120president": 1315,
      "\u0120level": 1316,
      "\u0120form": 1317,
      "ology": 1318,
      "\u0120using": 1319,
      "\u0120econom": 1320,
      "\u0120giv": 1321,
      "\u0120data": 1322,
      "\u0120news": 1323,
      "\u0120So": 1324,
      "\u0120pay": 1325,
      "ided": 1326,
      "uck": 1327,
      "\u0120val": 1328,
      "\u0120company": 1329,
      "ready": 1330,
      "\u0120program": 1331,
      "be": 1332,
      "\u0120dri": 1333,
      "\u0120pos": 1334,
      "\u0120process": 1335,
      "\u0120prom": 1336,
      "\u0120list": 1337,
      "ploy": 1338,
      "\u0120small": 1339,
      "ains": 1340,
      "\u0120char": 1341,
      "ode": 1342,
      "ten": 1343,
      "He": 1344,
      "\u0120eas": 1345,
      "iversity": 1346,
      "ians": 1347,
      "ruct": 1348,
      "\u0120unt": 1349,
      "'re": 1350,
      "\u0120current": 1351,
      "\u0120women": 1352,
      "used": 1353,
      "\u0120United": 1354,
      "\u0120design": 1355,
      "reen": 1356,
      "\u0120change": 1357,
      "\u0120sol": 1358,
      "\u0120money": 1359,
      "\u0120official": 1360,
      "\u0120mat": 1361,
      "ted": 1362,
      "\u0120later": 1363,
      "ases": 1364,
      "\u0120bre": 1365,
      "rap": 1366,
      "ohn": 1367,
      "\u0120rece": 1368,
      "\u0120already": 1369,
      "\u0120project": 1370,
      "aign": 1371,
      "stand": 1372,
      "\u0120Q": 1373,
      "ron": 1374,
      "\u0120why": 1375,
      "\u0120expect": 1376,
      "19": 1377,
      "\u0120How": 1378,
      "\u0120hist": 1379,
      "\u0120major": 1380,
      "\u0120techn": 1381,
      "\u012018": 1382,
      "\u0120talk": 1383,
      "\u0120book": 1384,
      "\u0120thing": 1385,
      "aff": 1386,
      "\u0120business": 1387,
      "ird": 1388,
      "ger": 1389,
      "\u0120claim": 1390,
      "\u0120organ": 1391,
      "to": 1392,
      "\u0120Ph": 1393,
      "\u0120ty": 1394,
      "\u0120always": 1395,
      "\u0120edit": 1396,
      "\u0120Can": 1397,
      "\u0120vis": 1398,
      "\u0120class": 1399,
      "\u0120story": 1400,
      "\u0120chang": 1401,
      "lection": 1402,
      "\u0120prof": 1403,
      "\u0120She": 1404,
      "\u0120cost": 1405,
      "\u0120pur": 1406,
      "ury": 1407,
      "\u0120Be": 1408,
      "ator": 1409,
      "ertain": 1410,
      "outh": 1411,
      "\u0120happen": 1412,
      "ption": 1413,
      "\u0120bo": 1414,
      "\u0120must": 1415,
      "ured": 1416,
      "\u0120const": 1417,
      "\u0120days": 1418,
      "ards": 1419,
      "\u0120job": 1420,
      "uthor": 1421,
      "\u0120health": 1422,
      "\u0120able": 1423,
      "ior": 1424,
      "\u0120important": 1425,
      "\u0120--": 1426,
      "here": 1427,
      "\u0120kill": 1428,
      "\u0120sk": 1429,
      "\u0120past": 1430,
      "\u0120away": 1431,
      "\u0120city": 1432,
      "\u0120large": 1433,
      "\u0120rese": 1434,
      "\u0120old": 1435,
      "\u0120least": 1436,
      "ending": 1437,
      "\u0120grow": 1438,
      "\u0120free": 1439,
      "\u012012": 1440,
      "\u0120men": 1441,
      "\u0120oper": 1442,
      "\u0120information": 1443,
      "\u0120polic": 1444,
      "\u0120est": 1445,
      "wit": 1446,
      "\u0120campaign": 1447,
      "acy": 1448,
      "\u0120var": 1449,
      "\u0120came": 1450,
      "\u0120hop": 1451,
      "ample": 1452,
      "\u0120Ad": 1453,
      "ission": 1454,
      "ides": 1455,
      "\u0120stre": 1456,
      "\u0120doesn": 1457,
      "ality": 1458,
      "\u0120tell": 1459,
      "pped": 1460,
      "ider": 1461,
      "rist": 1462,
      "\u0120record": 1463,
      "\u0120aff": 1464,
      "els": 1465,
      "ern": 1466,
      "ained": 1467,
      "\u0120until": 1468,
      "\u012015": 1469,
      "ural": 1470,
      "ney": 1471,
      "\u0120sit": 1472,
      "urity": 1473,
      "eral": 1474,
      "\u0120family": 1475,
      "St": 1476,
      "side": 1477,
      "ush": 1478,
      "\u0120tax": 1479,
      "\u0120pat": 1480,
      "\u0120enough": 1481,
      "\u0120making": 1482,
      "\u0120friend": 1483,
      "ccess": 1484,
      "\u0120dist": 1485,
      "ror": 1486,
      "br": 1487,
      "...": 1488,
      "ley": 1489,
      "\u0120mar": 1490,
      "\u0120Go": 1491,
      "\u0120Mar": 1492,
      "resident": 1493,
      "\u0120vide": 1494,
      "ware": 1495,
      "\u0120elect": 1496,
      "ified": 1497,
      "\u0120kind": 1498,
      "\u0120view": 1499,
      "augh": 1500,
      "\u0120political": 1501,
      "ister": 1502,
      "ued": 1503,
      "bs": 1504,
      "\u0120working": 1505,
      "\u0120199": 1506,
      "\u0120Sp": 1507,
      "\u0120line": 1508,
      "sc": 1509,
      "arent": 1510,
      "alf": 1511,
      "\u0120air": 1512,
      "\u0120es": 1513,
      "\u0120actually": 1514,
      "\u0120Republic": 1515,
      "\u0120deal": 1516,
      "As": 1517,
      "ising": 1518,
      "\u0120fore": 1519,
      "by": 1520,
      "\u0120took": 1521,
      "\u0120John": 1522,
      "ived": 1523,
      "\u0120intern": 1524,
      "\u0120become": 1525,
      "ries": 1526,
      "\u0120May": 1527,
      "If": 1528,
      "aring": 1529,
      "\u00e2\u0122\u00a6": 1530,
      "\u0120Sc": 1531,
      "\u0120name": 1532,
      "ional": 1533,
      "\u0120word": 1534,
      "ison": 1535,
      "\u0120par": 1536,
      "\u0120human": 1537,
      "ocrat": 1538,
      "ann": 1539,
      "aps": 1540,
      "\u0120=": 1541,
      "\u0120won": 1542,
      "\u0120Or": 1543,
      "\u0120often": 1544,
      "most": 1545,
      "ony": 1546,
      "iol": 1547,
      "for": 1548,
      "\u0120Dem": 1549,
      "\u0120ve": 1550,
      "ember": 1551,
      "\u0120mean": 1552,
      "\u0120Comm": 1553,
      "\u0120ever": 1554,
      "aining": 1555,
      "\u0120Euro": 1556,
      "\u0120order": 1557,
      "\u0120according": 1558,
      "\u0120former": 1559,
      "\u0120times": 1560,
      "aken": 1561,
      "wh": 1562,
      "\u0120fund": 1563,
      "11": 1564,
      "\u0120deb": 1565,
      "work": 1566,
      "\u0120sever": 1567,
      "gin": 1568,
      "idence": 1569,
      "oad": 1570,
      "\u0120All": 1571,
      "year": 1572,
      "\u0120give": 1573,
      "ization": 1574,
      "\u0120bit": 1575,
      "\u0120Obama": 1576,
      "\u0120Pl": 1577,
      "\u0120games": 1578,
      "\u0120sing": 1579,
      "ane": 1580,
      "\u0120return": 1581,
      "There": 1582,
      "\u0120market": 1583,
      "\u0120dev": 1584,
      "!!!!": 1585,
      "ither": 1586,
      "__": 1587,
      "\u0120York": 1588,
      "\u0120press": 1589,
      "\u0120seen": 1590,
      "idd": 1591,
      "\u0120occ": 1592,
      "\u0120doing": 1593,
      "eng": 1594,
      "\u0120today": 1595,
      "\u0120having": 1596,
      "\u0120lear": 1597,
      "\u0120bas": 1598,
      "mber": 1599,
      "\u0120went": 1600,
      "\u0120likely": 1601,
      "\u0120night": 1602,
      "oint": 1603,
      "\u0120Con": 1604,
      "\u0120fac": 1605,
      "\u0120perform": 1606,
      "\u0120several": 1607,
      "uture": 1608,
      "50": 1609,
      "iqu": 1610,
      "\u0120At": 1611,
      "aid": 1612,
      "\u0120social": 1613,
      "\u0120water": 1614,
      "\u0120crit": 1615,
      "\u0120early": 1616,
      "sh": 1617,
      "ubl": 1618,
      "ories": 1619,
      "rop": 1620,
      "\u0120players": 1621,
      "\u0120event": 1622,
      "\u0120media": 1623,
      "inc": 1624,
      "\u0120equ": 1625,
      "\u0120Sy": 1626,
      "\u0120young": 1627,
      "ended": 1628,
      "\u0120members": 1629,
      "\u012011": 1630,
      "icle": 1631,
      "\u0120appear": 1632,
      "\u0120side": 1633,
      "\u0120question": 1634,
      "\u0120sure": 1635,
      "iously": 1636,
      "\u0120children": 1637,
      "\u0120Mc": 1638,
      "\u0120control": 1639,
      "ots": 1640,
      "raft": 1641,
      "\u0120whether": 1642,
      "\u0120charac": 1643,
      "artment": 1644,
      "\u0120five": 1645,
      "\u0120President": 1646,
      "\u0120certain": 1647,
      "\u0120meet": 1648,
      "\u0120milit": 1649,
      "ched": 1650,
      "ium": 1651,
      "une": 1652,
      "\u0120once": 1653,
      "ands": 1654,
      "\u0120prop": 1655,
      "\u0120short": 1656,
      "\u0120Mr": 1657,
      "\u0120invol": 1658,
      "\u0120eng": 1659,
      "\u0120States": 1660,
      "iver": 1661,
      "iety": 1662,
      "\u0120arg": 1663,
      "\u0120vers": 1664,
      "\u0120course": 1665,
      "\u0120along": 1666,
      "\u0120ben": 1667,
      "nect": 1668,
      "\u0120among": 1669,
      "And": 1670,
      "lf": 1671,
      "\u0120known": 1672,
      "\u0120example": 1673,
      "\u0120Europe": 1674,
      "\u0120desc": 1675,
      "let": 1676,
      "\u0120hour": 1677,
      "enn": 1678,
      "\u0120possible": 1679,
      "\u0120author": 1680,
      "\u0120success": 1681,
      "\u0120pot": 1682,
      "urs": 1683,
      "\u0120within": 1684,
      "\u0120months": 1685,
      "\u0120]": 1686,
      "\u0120cho": 1687,
      "\u0120Te": 1688,
      "ulation": 1689,
      "\u0120Col": 1690,
      "\u0120priv": 1691,
      "ential": 1692,
      "\u0120problem": 1693,
      "\u0120University": 1694,
      "gress": 1695,
      "\u0120local": 1696,
      "\u0120ant": 1697,
      "verage": 1698,
      "rew": 1699,
      "\u0120fight": 1700,
      "\u0120activ": 1701,
      "\u0120fail": 1702,
      "\u0120product": 1703,
      "\u0120done": 1704,
      "\u0120thought": 1705,
      "\u0120investig": 1706,
      "\u0120means": 1707,
      "ague": 1708,
      "\u0120reason": 1709,
      "\u0120non": 1710,
      "ortun": 1711,
      "iting": 1712,
      "ially": 1713,
      "ats": 1714,
      "ourn": 1715,
      "\u0120protect": 1716,
      "ster": 1717,
      "empt": 1718,
      "por": 1719,
      "\u0120understand": 1720,
      "ball": 1721,
      "oci": 1722,
      "\u0120Car": 1723,
      "\u0120viol": 1724,
      "iber": 1725,
      "\u0120concer": 1726,
      "uff": 1727,
      "\u0120given": 1728,
      "\u0120orig": 1729,
      "ggest": 1730,
      "\u0120future": 1731,
      "ER": 1732,
      "\u0120When": 1733,
      "\u0120State": 1734,
      "iving": 1735,
      "12": 1736,
      "\u0120asked": 1737,
      "\u0120hold": 1738,
      "\u0120video": 1739,
      "\u0120On": 1740,
      "ivid": 1741,
      "\u0120Russ": 1742,
      "ederal": 1743,
      "vert": 1744,
      "my": 1745,
      "\u0120community": 1746,
      "\u0120avail": 1747,
      "ensive": 1748,
      "aun": 1749,
      "not": 1750,
      "ones": 1751,
      "\u0120writ": 1752,
      "ald": 1753,
      "\u0120House": 1754,
      "\u0120believe": 1755,
      "You": 1756,
      "back": 1757,
      "\u0120suggest": 1758,
      "\u0120ra": 1759,
      "orld": 1760,
      "itions": 1761,
      "30": 1762,
      "\u0120makes": 1763,
      "imate": 1764,
      "aged": 1765,
      "\u0120across": 1766,
      "\u0120&": 1767,
      "\u0120reported": 1768,
      "\u0120ca": 1769,
      "\u0120announ": 1770,
      "\u0120yet": 1771,
      "\u0120strong": 1772,
      "itive": 1773,
      "\u0120mus": 1774,
      "book": 1775,
      "\u0120sent": 1776,
      "\u0120No": 1777,
      "\u0120others": 1778,
      "\u0120indust": 1779,
      "\u0120,": 1780,
      "ene": 1781,
      "\u0120death": 1782,
      "\u00e2\u0122\u0135": 1783,
      "\u0120Br": 1784,
      "\u0120prob": 1785,
      "\u0120lim": 1786,
      "erman": 1787,
      "\u0120light": 1788,
      "rest": 1789,
      "\u0120getting": 1790,
      "\u0120issue": 1791,
      "\u0120low": 1792,
      "\u0120land": 1793,
      "\u0120Democrat": 1794,
      "\u0120Christ": 1795,
      "ances": 1796,
      "\u0120ident": 1797,
      "urther": 1798,
      "\u0120Co": 1799,
      "ored": 1800,
      "ober": 1801,
      "\u01202016": 1802,
      "\u0120court": 1803,
      "\u0120started": 1804,
      "\u0120Pr": 1805,
      "\u0120hig": 1806,
      "\u0120i": 1807,
      "lement": 1808,
      "\u0120cut": 1809,
      "ler": 1810,
      "\u0120employ": 1811,
      "\u0120|": 1812,
      "\u0120cond": 1813,
      "\u012030": 1814,
      "ashing": 1815,
      "\u0120sex": 1816,
      "\u0120saf": 1817,
      "ament": 1818,
      "\u0120national": 1819,
      "iron": 1820,
      "ument": 1821,
      "\u0120Min": 1822,
      "\u0120Cent": 1823,
      "\u0120based": 1824,
      "\u0120account": 1825,
      "ring": 1826,
      "//": 1827,
      "ustom": 1828,
      "\u0120ago": 1829,
      "15": 1830,
      "\u0120close": 1831,
      "\u0120#": 1832,
      "\u0120available": 1833,
      "ams": 1834,
      "\u0120almost": 1835,
      "cher": 1836,
      "\u0120What": 1837,
      "\u0120creat": 1838,
      "selves": 1839,
      "For": 1840,
      "\u0120pract": 1841,
      "\u0120love": 1842,
      "ai": 1843,
      "\u0120sour": 1844,
      "uly": 1845,
      "\u012016": 1846,
      "\u0120following": 1847,
      "aster": 1848,
      "ief": 1849,
      "\u01202015": 1850,
      "\u0120trad": 1851,
      "\u0120clear": 1852,
      "arm": 1853,
      "\u0120rul": 1854,
      "though": 1855,
      "\u0120series": 1856,
      "\u0120comes": 1857,
      "resent": 1858,
      "\u0120trying": 1859,
      "ability": 1860,
      "'ve": 1861,
      "\u0120party": 1862,
      "\u0120experience": 1863,
      "itional": 1864,
      "ination": 1865,
      "utes": 1866,
      "use": 1867,
      "erence": 1868,
      "\u0120One": 1869,
      "\u0120Canad": 1870,
      "\u0120added": 1871,
      "\u0120Bro": 1872,
      "\u0120area": 1873,
      "\u0120net": 1874,
      "\u0120mom": 1875,
      "orts": 1876,
      "\u0120taken": 1877,
      "ert": 1878,
      "\u0120idea": 1879,
      "rug": 1880,
      ".,": 1881,
      "gether": 1882,
      "\u0120together": 1883,
      "\u0120half": 1884,
      "\u0120access": 1885,
      "\u0120America": 1886,
      "ividual": 1887,
      "ators": 1888,
      "\u0120history": 1889,
      "reed": 1890,
      "\u0120X": 1891,
      "\u0120present": 1892,
      "oto": 1893,
      "ged": 1894,
      "\u0120Ex": 1895,
      "ograp": 1896,
      "\u0120isn": 1897,
      "\u0120proper": 1898,
      "\u0120Pol": 1899,
      "\u0120foc": 1900,
      "of": 1901,
      "\u0120anal": 1902,
      "----": 1903,
      "ev": 1904,
      "raw": 1905,
      "\u0120compet": 1906,
      "\u0120Sen": 1907,
      "\u0120Brit": 1908,
      "\u01202014": 1909,
      "pro": 1910,
      "\u0120complete": 1911,
      "\u0120saying": 1912,
      "\u0120Am": 1913,
      "\u0120impro": 1914,
      "\u0120six": 1915,
      "\u0120anything": 1916,
      "eb": 1917,
      "ails": 1918,
      "ilar": 1919,
      "\u0120Fl": 1920,
      "inton": 1921,
      "\u0120ris": 1922,
      "\u0120film": 1923,
      "\u0120looking": 1924,
      "cially": 1925,
      "af": 1926,
      "\u0120publ": 1927,
      "ote": 1928,
      "\u00e2\u0122\u0136\u00e2\u0122\u0136": 1929,
      "\u0120tot": 1930,
      "\u0120live": 1931,
      "amed": 1932,
      "AT": 1933,
      "nes": 1934,
      "wards": 1935,
      "\u0120miss": 1936,
      "\u0120North": 1937,
      "\u0120mind": 1938,
      "ministr": 1939,
      "\u0120rather": 1940,
      "\u0120bad": 1941,
      "\u0120aut": 1942,
      "\u0120Gr": 1943,
      "\u0120bill": 1944,
      "\u0120entire": 1945,
      "\u012014": 1946,
      "\u0120mess": 1947,
      "\u0120military": 1948,
      "\u0120vict": 1949,
      "\u0120behind": 1950,
      "ien": 1951,
      "\u0120individual": 1952,
      "rael": 1953,
      "\u0120near": 1954,
      "\u0120threat": 1955,
      "\u0120War": 1956,
      "\u0120tre": 1957,
      "\u0120z": 1958,
      "What": 1959,
      "\u0120single": 1960,
      "sy": 1961,
      "igr": 1962,
      "\u0120To": 1963,
      "par": 1964,
      "'m": 1965,
      "osp": 1966,
      "\u0120Man": 1967,
      "irc": 1968,
      "\u0120wanted": 1969,
      "\u0120food": 1970,
      "\u0120space": 1971,
      "\u0120security": 1972,
      "\u0120policy": 1973,
      "\u0120er": 1974,
      "\u0120black": 1975,
      "\u0120fall": 1976,
      "witter": 1977,
      "\u0120try": 1978,
      "lling": 1979,
      "\u0120sal": 1980,
      "play": 1981,
      "\u0120face": 1982,
      "\u012013": 1983,
      "\u0120discuss": 1984,
      "\u0120bring": 1985,
      "uge": 1986,
      "\u0120Af": 1987,
      "atic": 1988,
      "\u0120Eng": 1989,
      "\u0120foot": 1990,
      "\u0120mult": 1991,
      "\u0120quick": 1992,
      "\u0120Don": 1993,
      "On": 1994,
      "reme": 1995,
      "\u0120\u00c2": 1996,
      "off": 1997,
      "\u0120fav": 1998,
      "\u0120City": 1999,
      "\u012017": 2000,
      "\u0120compan": 2001,
      "\u0120mor": 2002,
      "\u0120study": 2003,
      "aper": 2004,
      "\u0120someone": 2005,
      "ids": 2006,
      "\u0120coun": 2007,
      "\u0120Cal": 2008,
      "\u0120connect": 2009,
      "ran": 2010,
      "An": 2011,
      "\u0120mass": 2012,
      "\u0120special": 2013,
      "\u0120sum": 2014,
      "RE": 2015,
      "ault": 2016,
      "\u00e3\u0123": 2017,
      "ashington": 2018,
      "ply": 2019,
      "\u0120jo": 2020,
      "14": 2021,
      "cing": 2022,
      "ris": 2023,
      "yn": 2024,
      "\u0120taking": 2025,
      "\u0120cou": 2026,
      "\u0120Dep": 2027,
      "\u0120World": 2028,
      "ify": 2029,
      "icult": 2030,
      "\u0120redu": 2031,
      "\u0120comb": 2032,
      "\u0120key": 2033,
      "\u0120describ": 2034,
      "\u0120decision": 2035,
      "aces": 2036,
      "\u0120National": 2037,
      "\u0120front": 2038,
      "\u0120Bar": 2039,
      ".)": 2040,
      "\u0120house": 2041,
      "16": 2042,
      "When": 2043,
      "\u0120attempt": 2044,
      "\u0120nothing": 2045,
      "\u0120Im": 2046,
      "rote": 2047,
      "\u0120ener": 2048,
      "\u0120sus": 2049,
      "\u0120rights": 2050,
      "\u0120Sec": 2051,
      "\u0120cult": 2052,
      "elt": 2053,
      "now": 2054,
      "\u0120pret": 2055,
      "\u0120probably": 2056,
      "\u0120Har": 2057,
      "\u0120benef": 2058,
      "\u0120Su": 2059,
      "So": 2060,
      "\u0120coming": 2061,
      "\u0120198": 2062,
      "IN": 2063,
      "\u0120German": 2064,
      "\u0120imm": 2065,
      "\u0120exist": 2066,
      "13": 2067,
      "\u0120Clinton": 2068,
      "dd": 2069,
      "ivil": 2070,
      "over": 2071,
      "That": 2072,
      "\u0120body": 2073,
      "\u0120Ge": 2074,
      "ully": 2075,
      "\u0120feat": 2076,
      "\u0120doc": 2077,
      "\u0120enc": 2078,
      "\u0120targ": 2079,
      "\u0120else": 2080,
      "ery": 2081,
      "asing": 2082,
      "\u0120federal": 2083,
      "\u0120fig": 2084,
      "\u0120:": 2085,
      "\u0120conv": 2086,
      "\u0120repl": 2087,
      "\u0120However": 2088,
      "\u0120infl": 2089,
      "go": 2090,
      "\u0120research": 2091,
      "\u00c3\u00a9": 2092,
      "lier": 2093,
      "ively": 2094,
      "\u0120player": 2095,
      "\u0120Israel": 2096,
      "uation": 2097,
      "olution": 2098,
      "\u0120states": 2099,
      "\u0120however": 2100,
      "\u01202013": 2101,
      "\u0120further": 2102,
      "\u0120exec": 2103,
      "IS": 2104,
      "\u0120wrote": 2105,
      "\u0120due": 2106,
      "ape": 2107,
      "\u0120whole": 2108,
      "ming": 2109,
      "\u0120step": 2110,
      "\u0120begin": 2111,
      "viron": 2112,
      "\u0120issues": 2113,
      "\u0120sw": 2114,
      "\u0120either": 2115,
      "\u0120companies": 2116,
      "\u0120Aust": 2117,
      "aul": 2118,
      "\u0120Washington": 2119,
      "pecially": 2120,
      "\u0120gun": 2121,
      "ttp": 2122,
      "\u0120seems": 2123,
      "\u0120became": 2124,
      "\u0120leaders": 2125,
      "attle": 2126,
      "\u0120tra": 2127,
      "\u0120South": 2128,
      "ried": 2129,
      "\u0120third": 2130,
      "\u0120stop": 2131,
      "ches": 2132,
      "\u0120hit": 2133,
      "ows": 2134,
      "\u0120stri": 2135,
      "\u0120super": 2136,
      "ana": 2137,
      "\u0120everything": 2138,
      "\u0120With": 2139,
      "\u0120cand": 2140,
      "\u0120signific": 2141,
      "anks": 2142,
      "Ch": 2143,
      "\u0120App": 2144,
      "18": 2145,
      "irl": 2146,
      "\u0120create": 2147,
      "\u0120released": 2148,
      "lish": 2149,
      "\u0120Gu": 2150,
      "\u0120evidence": 2151,
      "\u0120wa": 2152,
      "ades": 2153,
      "sw": 2154,
      "\u0120officials": 2155,
      "\u0120ey": 2156,
      "mb": 2157,
      "\u0120points": 2158,
      "\u0120final": 2159,
      "ilt": 2160,
      "\u0120service": 2161,
      "ently": 2162,
      "\u0120custom": 2163,
      "\u0120sound": 2164,
      "\u0120Dav": 2165,
      "ww": 2166,
      "\u0120compl": 2167,
      "\u0120Jan": 2168,
      "\u0120pick": 2169,
      "\u0120lab": 2170,
      "\u0120amount": 2171,
      "\u0120began": 2172,
      "\u0120field": 2173,
      "\u0120similar": 2174,
      "\u0120watch": 2175,
      "\u0120wasn": 2176,
      "\u0120Part": 2177,
      "itted": 2178,
      "\u0120dam": 2179,
      "\u0120energy": 2180,
      "\u0120dom": 2181,
      "oon": 2182,
      "\u0120fire": 2183,
      "\u0120di": 2184,
      "\u0120general": 2185,
      "\u0120ground": 2186,
      "\u0120statement": 2187,
      "\u0120matter": 2188,
      "17": 2189,
      "\u0120stat": 2190,
      "\u0120development": 2191,
      "\u0120/": 2192,
      "ON": 2193,
      "\u01202017": 2194,
      "\u0120itself": 2195,
      "\u0120room": 2196,
      "eal": 2197,
      "lim": 2198,
      "\u0120China": 2199,
      "\u0120position": 2200,
      "rodu": 2201,
      "iday": 2202,
      "\u0120self": 2203,
      "pite": 2204,
      "pping": 2205,
      "obal": 2206,
      "\u0120role": 2207,
      "amer": 2208,
      "\u0120break": 2209,
      "AN": 2210,
      "\u0120countries": 2211,
      "\u0120meas": 2212,
      "\u0120opt": 2213,
      "sec": 2214,
      "\u0120office": 2215,
      "BC": 2216,
      "\u0120himself": 2217,
      "\u0120true": 2218,
      "\u0120chall": 2219,
      "\u0120hours": 2220,
      "\u0120dou": 2221,
      "ibility": 2222,
      "\u01202012": 2223,
      "\u0120Res": 2224,
      "\u0120action": 2225,
      "\u012025": 2226,
      "\u0120agree": 2227,
      "iod": 2228,
      "ograph": 2229,
      "\u0120treat": 2230,
      "\u0120interview": 2231,
      "\u0120drug": 2232,
      "aced": 2233,
      "\u0120specific": 2234,
      "right": 2235,
      "\u0120larg": 2236,
      "like": 2237,
      "\u0120character": 2238,
      "\u0120cop": 2239,
      "\u0120100": 2240,
      "\u0120outside": 2241,
      "://": 2242,
      "\u0120white": 2243,
      "\u0120continue": 2244,
      "\u0120relations": 2245,
      "umb": 2246,
      "\u0120themselves": 2247,
      "\u0120represent": 2248,
      "\u0120students": 2249,
      "ung": 2250,
      "yle": 2251,
      "ogn": 2252,
      "\u0120Just": 2253,
      "\u0120needed": 2254,
      "\u0120difficult": 2255,
      "\u0120Inst": 2256,
      "\u0120groups": 2257,
      "\u0120provide": 2258,
      "\u0120init": 2259,
      "head": 2260,
      "\u0120His": 2261,
      "\u0120laun": 2262,
      "\u0120bar": 2263,
      "\u0120Intern": 2264,
      "\u0120simply": 2265,
      "\u0120Ass": 2266,
      "ask": 2267,
      "\u0120common": 2268,
      "\u0120legal": 2269,
      "vironment": 2270,
      "\u0120music": 2271,
      "\u0120neg": 2272,
      "\u0120profess": 2273,
      "\u0120above": 2274,
      "ili": 2275,
      "\u0120version": 2276,
      "\u0120tem": 2277,
      "\u0120building": 2278,
      "iddle": 2279,
      "\u0120charg": 2280,
      "\u0120administr": 2281,
      "\u0120saw": 2282,
      "'ll": 2283,
      "light": 2284,
      "\u0120needs": 2285,
      "ream": 2286,
      "\u0120dest": 2287,
      "\u0120woman": 2288,
      "\u0120rad": 2289,
      "ift": 2290,
      "\u0120exc": 2291,
      "\u0120lat": 2292,
      "\u0120release": 2293,
      "\u0120Med": 2294,
      "\u0120Ed": 2295,
      "\u0120suff": 2296,
      "lam": 2297,
      "\u0120below": 2298,
      "\u0120typ": 2299,
      "\u0120include": 2300,
      "\u0120running": 2301,
      "isc": 2302,
      "\u0120mag": 2303,
      "ender": 2304,
      "\u0120significant": 2305,
      "acebook": 2306,
      "ournal": 2307,
      "reg": 2308,
      "\u0120respons": 2309,
      "\u0120address": 2310,
      "iding": 2311,
      "ached": 2312,
      "\u0120deep": 2313,
      "\u0120industry": 2314,
      "AS": 2315,
      "eks": 2316,
      "\u0120everyone": 2317,
      "arter": 2318,
      "\u0120shows": 2319,
      "\u0120late": 2320,
      "ribut": 2321,
      "\u0120ap": 2322,
      "\u0120especially": 2323,
      "\u0120election": 2324,
      "epend": 2325,
      "\u0120phys": 2326,
      "\u0120After": 2327,
      "atur": 2328,
      "\u0120West": 2329,
      "\u0120played": 2330,
      "\u0120changes": 2331,
      "\u0120instead": 2332,
      "\u0120Will": 2333,
      "\u0120candid": 2334,
      "\u0120site": 2335,
      "\u0120shoot": 2336,
      "ccording": 2337,
      "\u0120gen": 2338,
      "\u0120red": 2339,
      "\u0120jud": 2340,
      "\u0120Not": 2341,
      "\u0120White": 2342,
      "body": 2343,
      "\u0120anim": 2344,
      "\u0120pretty": 2345,
      "\u0120quite": 2346,
      "\u0120ple": 2347,
      "urch": 2348,
      "\u0120Mus": 2349,
      "\u0120tit": 2350,
      "\u0120abs": 2351,
      "\u0120works": 2352,
      "\u0120relig": 2353,
      "\u0120Ab": 2354,
      "ival": 2355,
      "time": 2356,
      "angu": 2357,
      "\u0120economic": 2358,
      "\u0120period": 2359,
      "omes": 2360,
      "osing": 2361,
      "\u012050": 2362,
      "su": 2363,
      "oring": 2364,
      "\u0120lost": 2365,
      "\u0120track": 2366,
      "where": 2367,
      "istic": 2368,
      "\u0120sense": 2369,
      "\u0120alleg": 2370,
      "\u0120playing": 2371,
      "How": 2372,
      "\u0120mot": 2373,
      "\u0120ce": 2374,
      "ogle": 2375,
      "\u0120friends": 2376,
      "cil": 2377,
      "\u0120inj": 2378,
      "\u0120higher": 2379,
      "\u0120billion": 2380,
      "\u0120share": 2381,
      "\u0120decl": 2382,
      "\u0120recently": 2383,
      "\u0120block": 2384,
      "\u0120circ": 2385,
      "\u0120Sm": 2386,
      "\u0120value": 2387,
      "oke": 2388,
      "duct": 2389,
      "\u0120ball": 2390,
      "\u0120accept": 2391,
      "ager": 2392,
      "irt": 2393,
      "\u0120words": 2394,
      "\u0120weeks": 2395,
      "\u0120deter": 2396,
      "lt": 2397,
      "ns": 2398,
      "\u0120opportun": 2399,
      "\u0120vote": 2400,
      "\u0120hope": 2401,
      "omm": 2402,
      "\u0120total": 2403,
      "\u0120object": 2404,
      "\u0120parent": 2405,
      "itting": 2406,
      "oph": 2407,
      "eed": 2408,
      "bo": 2409,
      "\u0120moment": 2410,
      "\u0120webs": 2411,
      "**": 2412,
      "\u0120held": 2413,
      "\u0120\u00d0": 2414,
      "\u0120Sept": 2415,
      "\u0120forward": 2416,
      "\u0120online": 2417,
      "\u0120Cong": 2418,
      "medi": 2419,
      "\u0120pain": 2420,
      "60": 2421,
      "\u0120My": 2422,
      "\u0120Oct": 2423,
      "\u0120wrong": 2424,
      "\u0120soon": 2425,
      "asons": 2426,
      "oe": 2427,
      "\u0120pie": 2428,
      "\u0120goal": 2429,
      "ancial": 2430,
      "\u0120Department": 2431,
      "\u012024": 2432,
      "\u0120sold": 2433,
      "lev": 2434,
      "\u0120host": 2435,
      "ularly": 2436,
      "\u0120comput": 2437,
      "\u0120consider": 2438,
      "\u0120age": 2439,
      "uary": 2440,
      "\u0120led": 2441,
      "\u0120Aug": 2442,
      "irm": 2443,
      "hod": 2444,
      "ners": 2445,
      "onse": 2446,
      "\u0120pred": 2447,
      "aut": 2448,
      "\u0120News": 2449,
      "\u0120lo": 2450,
      "key": 2451,
      "\u0120consum": 2452,
      "Al": 2453,
      "haps": 2454,
      "\u0120Twitter": 2455,
      "\u0120These": 2456,
      "che": 2457,
      "\u0120Dr": 2458,
      "pril": 2459,
      "\u0120stay": 2460,
      "\u0120ep": 2461,
      "\u0120cred": 2462,
      "\u0120Republican": 2463,
      "\u0120div": 2464,
      "\u0120Mich": 2465,
      "ique": 2466,
      "==": 2467,
      "They": 2468,
      "\u0120potential": 2469,
      "\u0120stru": 2470,
      "\u0120)": 2471,
      "\u0120Ste": 2472,
      "\u0120March": 2473,
      "\u0120197": 2474,
      "oid": 2475,
      "ends": 2476,
      "25": 2477,
      "\u0120function": 2478,
      "\u0120popular": 2479,
      "\u0120{": 2480,
      "cial": 2481,
      "\u0120check": 2482,
      "ky": 2483,
      "\u0120contract": 2484,
      "\u0120longer": 2485,
      "ateg": 2486,
      "\u0120problems": 2487,
      "\u0120walk": 2488,
      "apan": 2489,
      "fer": 2490,
      "anger": 2491,
      "\u0120port": 2492,
      "ham": 2493,
      "ech": 2494,
      "\u0120results": 2495,
      "lege": 2496,
      "ients": 2497,
      "\u0120reve": 2498,
      "Ph": 2499,
      "na": 2500,
      "\u0120vol": 2501,
      "\u01202011": 2502,
      "isl": 2503,
      "\u0120technology": 2504,
      "\u0120announced": 2505,
      "\u0120dead": 2506,
      "\u0120applic": 2507,
      "\u0120anyone": 2508,
      "ees": 2509,
      "\u0120den": 2510,
      "\u0120questions": 2511,
      "cle": 2512,
      "ole": 2513,
      "\u0120shot": 2514,
      "\u0120Pe": 2515,
      "\u0120upd": 2516,
      "\u0120personal": 2517,
      "\u0120services": 2518,
      "\u0120June": 2519,
      "hern": 2520,
      "\u0120aud": 2521,
      "\u0120express": 2522,
      "\u0120educ": 2523,
      "\u0120Cour": 2524,
      "aging": 2525,
      "\u0120review": 2526,
      "\u0120staff": 2527,
      "\u0120hy": 2528,
      "itution": 2529,
      "\u0120target": 2530,
      "\u0120focus": 2531,
      "ij": 2532,
      "aterial": 2533,
      "ray": 2534,
      "\u0120prim": 2535,
      "\u0120received": 2536,
      "\u0120respect": 2537,
      "\u0120rev": 2538,
      "\u0120rate": 2539,
      "\u0120price": 2540,
      "hood": 2541,
      "\u0120cases": 2542,
      "\u0120Par": 2543,
      "\u0120civil": 2544,
      "\u0120soft": 2545,
      "\u0120increase": 2546,
      "\u0120pack": 2547,
      "\u0120July": 2548,
      "\u0120earlier": 2549,
      "urd": 2550,
      "mon": 2551,
      "\u0120wind": 2552,
      "icro": 2553,
      "\u0120ways": 2554,
      "\u0120article": 2555,
      "\u0120minutes": 2556,
      "ript": 2557,
      "\u0120speak": 2558,
      "\u0120international": 2559,
      "str": 2560,
      "atives": 2561,
      "itiz": 2562,
      "put": 2563,
      "\u0120God": 2564,
      "\u0120expected": 2565,
      "mp": 2566,
      "\u0120En": 2567,
      "val": 2568,
      "action": 2569,
      "\u0120created": 2570,
      "fect": 2571,
      "\u0120ur": 2572,
      "ilities": 2573,
      "\u0120heart": 2574,
      "\u0120execut": 2575,
      "iter": 2576,
      "\u0120original": 2577,
      "\u0120comment": 2578,
      "ude": 2579,
      "\u0120users": 2580,
      "\u0120Mond": 2581,
      "\u0120code": 2582,
      "\u0120answ": 2583,
      "\u0120surpr": 2584,
      "ule": 2585,
      "aving": 2586,
      "\u0120terror": 2587,
      "\u0120involved": 2588,
      "AR": 2589,
      "uel": 2590,
      "\u0120private": 2591,
      "\u0120Red": 2592,
      "][": 2593,
      "\u0120base": 2594,
      "\u0120Congress": 2595,
      "\u0120necess": 2596,
      "\u0120environment": 2597,
      "\u0120scient": 2598,
      "\u0120anti": 2599,
      "\u0120easy": 2600,
      "\u0120reports": 2601,
      "\u0120average": 2602,
      "iple": 2603,
      "\u0120arrest": 2604,
      "\u0120exact": 2605,
      "\u0120April": 2606,
      "\u0120impact": 2607,
      "\u00c2\u0143": 2608,
      "\u0120nearly": 2609,
      "\u0120living": 2610,
      "\u0120Syri": 2611,
      "okes": 2612,
      "\u0120killed": 2613,
      "ctor": 2614,
      "\u0120Facebook": 2615,
      "Ad": 2616,
      "hel": 2617,
      "\u0120cannot": 2618,
      "\u0120Americans": 2619,
      "\u0120Do": 2620,
      "omb": 2621,
      "\u0120subject": 2622,
      "\u0120capt": 2623,
      "\u0120Austral": 2624,
      "\u0120risk": 2625,
      "rel": 2626,
      "ples": 2627,
      "ires": 2628,
      "\u0120sen": 2629,
      "\u0120leave": 2630,
      "eg": 2631,
      "At": 2632,
      "ittee": 2633,
      "uesday": 2634,
      "\u0120respond": 2635,
      "ael": 2636,
      "\u0120Hill": 2637,
      "rem": 2638,
      "\u0120force": 2639,
      "\u0120coll": 2640,
      "bor": 2641,
      "ites": 2642,
      "ought": 2643,
      "\u0120obs": 2644,
      "\u0120gave": 2645,
      "\u0120happened": 2646,
      "ES": 2647,
      "\u0120Friday": 2648,
      "\u0120model": 2649,
      "\u0120nation": 2650,
      "reet": 2651,
      "\".": 2652,
      "lled": 2653,
      "\u0120favor": 2654,
      "\u0120del": 2655,
      "\u0120club": 2656,
      "\u0120request": 2657,
      "\u0120worth": 2658,
      "\u0120Now": 2659,
      "\u0120global": 2660,
      "rought": 2661,
      "cast": 2662,
      "\u0120estab": 2663,
      "\u0120Monday": 2664,
      "\u0120worked": 2665,
      "\u0120Ag": 2666,
      "eter": 2667,
      "itten": 2668,
      "\u0120content": 2669,
      "\u0120Japan": 2670,
      "\u0120response": 2671,
      "\u0120terms": 2672,
      "ips": 2673,
      "\u0120Calif": 2674,
      "\u0120tal": 2675,
      "\u0120inside": 2676,
      "\u0120decided": 2677,
      "\u0120buy": 2678,
      "\u0120mid": 2679,
      "\u0120published": 2680,
      "ruction": 2681,
      "ext": 2682,
      "joy": 2683,
      "\u0120director": 2684,
      "\u0120collect": 2685,
      "\u0120ord": 2686,
      "\u0120langu": 2687,
      "To": 2688,
      "\u0120@": 2689,
      "\u0120phone": 2690,
      "ises": 2691,
      "\u0120foreign": 2692,
      "\u0120Count": 2693,
      "\u0120Off": 2694,
      "\u0120Act": 2695,
      "\u0120Tuesday": 2696,
      "\u0120type": 2697,
      "\u0120influ": 2698,
      "\u0120road": 2699,
      "\u0120broad": 2700,
      "\u0120bi": 2701,
      "\u0120weap": 2702,
      "\u0120chance": 2703,
      "\u01202010": 2704,
      "\u0120adm": 2705,
      "ino": 2706,
      "istrict": 2707,
      "\u0120lack": 2708,
      "bit": 2709,
      "\u0120cell": 2710,
      "\u0120Wed": 2711,
      "\u0120associ": 2712,
      "unt": 2713,
      "\u0120immedi": 2714,
      "\u0120workers": 2715,
      "\u0120Some": 2716,
      "\u0120situation": 2717,
      "rown": 2718,
      "\u0120store": 2719,
      "oved": 2720,
      "\u0120Google": 2721,
      "ging": 2722,
      "\u0120While": 2723,
      "ellig": 2724,
      "lex": 2725,
      "\u0120squ": 2726,
      "\u0120et": 2727,
      "\u0120Geor": 2728,
      "izing": 2729,
      "atural": 2730,
      "\u0120defin": 2731,
      "\u0120January": 2732,
      "\u0120whose": 2733,
      "ani": 2734,
      "\u0120plans": 2735,
      "\u0120financial": 2736,
      "\u0120recogn": 2737,
      "\u0120relationship": 2738,
      "\u0120areas": 2739,
      "ological": 2740,
      "\u0120turned": 2741,
      "ops": 2742,
      "\u0120ability": 2743,
      "\u0120takes": 2744,
      "ovember": 2745,
      "\u0120member": 2746,
      "\u0120material": 2747,
      "!!!!!!!!": 2748,
      "\u0120girl": 2749,
      "\u0120September": 2750,
      "\u012040": 2751,
      "\u0120couple": 2752,
      "\u0120British": 2753,
      "\u0120phot": 2754,
      "\u0120currently": 2755,
      "osition": 2756,
      "\u0120arri": 2757,
      "\u0120require": 2758,
      "\u0120regard": 2759,
      "\u0120administration": 2760,
      "force": 2761,
      "\u0120race": 2762,
      "\u0120fans": 2763,
      "based": 2764,
      "\u0120mother": 2765,
      "\u012021": 2766,
      "ese": 2767,
      "apt": 2768,
      "\u0120capital": 2769,
      "200": 2770,
      "\u0120cal": 2771,
      "\",": 2772,
      "OR": 2773,
      "nesday": 2774,
      "ctions": 2775,
      "\u0120ill": 2776,
      "iction": 2777,
      "\u0120Sund": 2778,
      "\u0120Per": 2779,
      "\u0120bank": 2780,
      "\u0120huge": 2781,
      "\u0120approach": 2782,
      "ursday": 2783,
      "\u0120source": 2784,
      "\u0120neigh": 2785,
      "ructure": 2786,
      "\u0120felt": 2787,
      "\u0120teams": 2788,
      "rain": 2789,
      "\u0120Court": 2790,
      "ety": 2791,
      "\u0120lives": 2792,
      "fully": 2793,
      "\u0120particip": 2794,
      "\u0120father": 2795,
      "\u0120secret": 2796,
      "\u0120norm": 2797,
      "\u0120via": 2798,
      "ma": 2799,
      "\u0120mis": 2800,
      "99": 2801,
      "\u0120oil": 2802,
      "\u0120log": 2803,
      "oor": 2804,
      "\u0120events": 2805,
      "ened": 2806,
      "\u0120emer": 2807,
      "icated": 2808,
      "\u0120simple": 2809,
      "\u0120By": 2810,
      "\u0120affect": 2811,
      "\u0120method": 2812,
      "oud": 2813,
      "\u0120thous": 2814,
      "\u0120goes": 2815,
      "\u0120town": 2816,
      "\u0120European": 2817,
      "ornia": 2818,
      "One": 2819,
      "\u0120Cor": 2820,
      "\u0120Gl": 2821,
      "estern": 2822,
      "40": 2823,
      "usion": 2824,
      "\u0120Pal": 2825,
      "\u0120meeting": 2826,
      "?\u00e2\u0122\u013f": 2827,
      "\u0120offer": 2828,
      "\u0120quickly": 2829,
      "ession": 2830,
      "\u0120boy": 2831,
      "\u0120hon": 2832,
      "atory": 2833,
      "\u0120fre": 2834,
      "chie": 2835,
      "\u0120Wednesday": 2836,
      "\u0120engine": 2837,
      "\u0120knew": 2838,
      "\u0120Islam": 2839,
      "\u0120November": 2840,
      "'d": 2841,
      "\u0120legisl": 2842,
      "ills": 2843,
      "\u0120built": 2844,
      "\u0120fem": 2845,
      "\u0120Me": 2846,
      "Sh": 2847,
      "\u0120August": 2848,
      "\u0120heard": 2849,
      "\u0120spent": 2850,
      "\u0120tou": 2851,
      "\u0120pers": 2852,
      "EN": 2853,
      "\u0120wide": 2854,
      "\u0120Thursday": 2855,
      "\u0120deli": 2856,
      "\u0120<": 2857,
      "\u0120website": 2858,
      "iment": 2859,
      "\u0120vo": 2860,
      "bl": 2861,
      "\u0120network": 2862,
      "\u0120pull": 2863,
      "\u0120page": 2864,
      "\u0120repe": 2865,
      "\u0120performance": 2866,
      "\u0120TV": 2867,
      "\u012022": 2868,
      "\u0120cy": 2869,
      "\u0120economy": 2870,
      "cember": 2871,
      "\u0120included": 2872,
      "\u0120travel": 2873,
      "\u0120size": 2874,
      "\u0120fair": 2875,
      "\u0120song": 2876,
      "\u0120tried": 2877,
      "\u0120tool": 2878,
      "\u0120cover": 2879,
      "\u0120David": 2880,
      "raz": 2881,
      "\u0120Canada": 2882,
      "\u0120San": 2883,
      "\u0120Feb": 2884,
      "vertise": 2885,
      "\u0120pict": 2886,
      "\u0120match": 2887,
      "\u0120trade": 2888,
      "\u0120victim": 2889,
      "\u0120hands": 2890,
      "orters": 2891,
      "\u0120demand": 2892,
      "\u0120introdu": 2893,
      "\u0120growth": 2894,
      "ett": 2895,
      "ceed": 2896,
      "avy": 2897,
      "\u0120Afric": 2898,
      "\u0120separ": 2899,
      "\u0120El": 2900,
      "ume": 2901,
      "aily": 2902,
      "\u0120board": 2903,
      "\u0120citiz": 2904,
      "\u0120lower": 2905,
      "\u0120loss": 2906,
      "\u0120poll": 2907,
      "\u0120ste": 2908,
      "oo": 2909,
      "\u0120cause": 2910,
      "\u0120population": 2911,
      "\u0120career": 2912,
      "\u0120Paul": 2913,
      "\u0120dig": 2914,
      "\u0120email": 2915,
      "\u0120enjoy": 2916,
      "arth": 2917,
      "\u0120Ang": 2918,
      "iam": 2919,
      "alled": 2920,
      "\u0120allowed": 2921,
      "\u0120Sch": 2922,
      "\u0120text": 2923,
      "\u0120California": 2924,
      "face": 2925,
      "aled": 2926,
      "\u0120progress": 2927,
      "\u00e2\u0122\u013f.": 2928,
      "\u0120Qu": 2929,
      "\u0120visit": 2930,
      "\u0120gets": 2931,
      "\u0120brought": 2932,
      "\u0120fear": 2933,
      "\u0120Park": 2934,
      "\u0120improve": 2935,
      "aur": 2936,
      "order": 2937,
      "\u0120October": 2938,
      "idered": 2939,
      "\u0120Sunday": 2940,
      "\u0120Sw": 2941,
      "agement": 2942,
      "rect": 2943,
      "\u0120production": 2944,
      "\u0120numbers": 2945,
      "\u0120round": 2946,
      "\u0120forces": 2947,
      "\u0120Russia": 2948,
      "undred": 2949,
      "ights": 2950,
      "After": 2951,
      "With": 2952,
      "\u0120reach": 2953,
      "raq": 2954,
      "cies": 2955,
      "ences": 2956,
      "gest": 2957,
      "uses": 2958,
      "yond": 2959,
      "idents": 2960,
      "\u0120fell": 2961,
      "\u0120+": 2962,
      "aker": 2963,
      "\u0120coach": 2964,
      "\u0120perfect": 2965,
      "down": 2966,
      "\u0120ban": 2967,
      "\u012023": 2968,
      "ze": 2969,
      "\u0120IS": 2970,
      "\u0120UK": 2971,
      "\u0120sett": 2972,
      "unk": 2973,
      "\u0120link": 2974,
      "\u0120particular": 2975,
      "urning": 2976,
      "\u0120rules": 2977,
      "ining": 2978,
      "\u0120December": 2979,
      "\u0120Post": 2980,
      "\u0120wants": 2981,
      "\u0120movement": 2982,
      "\u0120Times": 2983,
      "\u0120independ": 2984,
      "load": 2985,
      "\u0120various": 2986,
      "\u0120behav": 2987,
      "uments": 2988,
      "\u0120leader": 2989,
      "\u0120previous": 2990,
      "arily": 2991,
      "alt": 2992,
      "\u0120hot": 2993,
      "ibly": 2994,
      "\u0120mention": 2995,
      "ecause": 2996,
      "lear": 2997,
      "\u0120contact": 2998,
      "uk": 2999,
      "\u0120star": 3000,
      "\u0120Party": 3001,
      "omp": 3002,
      "\u0120ess": 3003,
      "\u0120considered": 3004,
      "hold": 3005,
      "\u0120talking": 3006,
      "\u0120Kore": 3007,
      "field": 3008,
      "\u0120prep": 3009,
      "bed": 3010,
      "ope": 3011,
      "\u0120doll": 3012,
      "inks": 3013,
      "ification": 3014,
      "\u0120http": 3015,
      "\u0120surve": 3016,
      "\u0120liber": 3017,
      "\u0120looks": 3018,
      "oming": 3019,
      "\u0120speed": 3020,
      "\u0120Black": 3021,
      "\u0120rac": 3022,
      "sequ": 3023,
      "\u0120morning": 3024,
      "uf": 3025,
      "\u0120Center": 3026,
      "\u0120latest": 3027,
      "\u0120attention": 3028,
      "ening": 3029,
      "ysis": 3030,
      "\u0120hor": 3031,
      "\u0120critic": 3032,
      "come": 3033,
      "\u0120conduct": 3034,
      "chers": 3035,
      "\u0120hear": 3036,
      "\u0120crim": 3037,
      "\u0120upon": 3038,
      "\u0120Iraq": 3039,
      "\u0120India": 3040,
      "\u0120slow": 3041,
      "\u0120bud": 3042,
      "\u0120bott": 3043,
      "AL": 3044,
      "\u0120veh": 3045,
      "\u0120Her": 3046,
      "\u0120reb": 3047,
      "istan": 3048,
      "\u0120sort": 3049,
      "sych": 3050,
      "ledge": 3051,
      "aturday": 3052,
      "\u00d0\u00b0": 3053,
      "ico": 3054,
      "\u0120image": 3055,
      "\u0120training": 3056,
      "aries": 3057,
      "\u0120except": 3058,
      "vent": 3059,
      "illed": 3060,
      "\u0120box": 3061,
      "While": 3062,
      "\u0120Pat": 3063,
      "\u0120conserv": 3064,
      "\u0120parents": 3065,
      "rim": 3066,
      "\u0120pen": 3067,
      "22": 3068,
      "\u0120Sand": 3069,
      "\u0120Cont": 3070,
      "____": 3071,
      "\u0120son": 3072,
      "\u0120features": 3073,
      "fl": 3074,
      "\u0120society": 3075,
      "\u0120King": 3076,
      "imately": 3077,
      "\u0120exam": 3078,
      "\u0120extreme": 3079,
      "\u0120strugg": 3080,
      "ibr": 3081,
      "ha": 3082,
      "icles": 3083,
      "\u0120demon": 3084,
      "ban": 3085,
      "\u0120sens": 3086,
      "eff": 3087,
      "ps": 3088,
      "\u0120Mark": 3089,
      "\u0120search": 3090,
      "wo": 3091,
      "\u0120systems": 3092,
      "\u0120range": 3093,
      "\u0120ens": 3094,
      "\u0120mach": 3095,
      "\u0120convers": 3096,
      "coin": 3097,
      "\u0120document": 3098,
      "\u0120Iran": 3099,
      "\u0120gas": 3100,
      "iant": 3101,
      "\u0120named": 3102,
      "eared": 3103,
      "\u0120serious": 3104,
      "\u0120levels": 3105,
      "\u0120officers": 3106,
      "\u0120immigr": 3107,
      ");": 3108,
      "ED": 3109,
      "\u0120sn": 3110,
      "\u0120paper": 3111,
      "het": 3112,
      "ondon": 3113,
      "\u0120investigation": 3114,
      "\u0120Soc": 3115,
      "\u0120addition": 3116,
      "\u0120majority": 3117,
      "\u0120blood": 3118,
      "\u0120learn": 3119,
      "ication": 3120,
      "aph": 3121,
      "\u0120effort": 3122,
      "\u0120attacks": 3123,
      "\u0120und": 3124,
      "\u0120seek": 3125,
      "\u0120Street": 3126,
      "\u0120eight": 3127,
      "fort": 3128,
      "\u0120seven": 3129,
      "\u0120Senate": 3130,
      "aming": 3131,
      "\u0120conc": 3132,
      "\u0120wond": 3133,
      "ales": 3134,
      "tr": 3135,
      "\u0120poor": 3136,
      "\u0120fast": 3137,
      "\u0120written": 3138,
      "80": 3139,
      "\u0120required": 3140,
      "AC": 3141,
      "inese": 3142,
      "\u0120looked": 3143,
      "eth": 3144,
      "\u0120spokes": 3145,
      "\u0120County": 3146,
      "\u0120occur": 3147,
      "elligence": 3148,
      "Tr": 3149,
      "ux": 3150,
      "\u0120lay": 3151,
      "\u0120defense": 3152,
      "\u0120achie": 3153,
      "\u0120language": 3154,
      "\u0120Star": 3155,
      "\u0120experien": 3156,
      "US": 3157,
      "\u0120draw": 3158,
      "\u0120medical": 3159,
      "\u0120Muslim": 3160,
      "24": 3161,
      "aves": 3162,
      "?\"": 3163,
      "\u0120regul": 3164,
      "\u0120dro": 3165,
      "inally": 3166,
      "\u01202009": 3167,
      "\u0120doub": 3168,
      "\u0120journal": 3169,
      "\u0120stuff": 3170,
      "IC": 3171,
      "ishing": 3172,
      "\u0120card": 3173,
      "\u0120completely": 3174,
      "aly": 3175,
      "\u0120prison": 3176,
      "\u0120extra": 3177,
      "\u0120increasing": 3178,
      "OS": 3179,
      "\u0120exactly": 3180,
      "\u0120protest": 3181,
      "\u0120hundred": 3182,
      "idge": 3183,
      "\u012027": 3184,
      "ges": 3185,
      "\u0120products": 3186,
      "\u0120screen": 3187,
      "\u0120prevent": 3188,
      "atter": 3189,
      "\u0120opportunity": 3190,
      "\u0120particularly": 3191,
      "erve": 3192,
      "pper": 3193,
      "\u0120despite": 3194,
      "\u01202008": 3195,
      "lying": 3196,
      "oses": 3197,
      "\u0120leading": 3198,
      "\u0120message": 3199,
      "\u0120prior": 3200,
      "\u0120increased": 3201,
      "\u00d0\u00be": 3202,
      "\u0120Rom": 3203,
      "atform": 3204,
      "ruary": 3205,
      "\u0120described": 3206,
      "ground": 3207,
      "pir": 3208,
      "\u0120stories": 3209,
      "ille": 3210,
      "\u0120biggest": 3211,
      "iers": 3212,
      "\u0120obv": 3213,
      "\u0120path": 3214,
      "AM": 3215,
      "\u0120fix": 3216,
      "\u0120user": 3217,
      "\u0120calls": 3218,
      "nces": 3219,
      "\u0120Ke": 3220,
      "\u0120practice": 3221,
      "asc": 3222,
      "\u0120ult": 3223,
      "\u0120pan": 3224,
      "\u0120Mor": 3225,
      "\u0120Democratic": 3226,
      "\u0120Tex": 3227,
      "\u0120item": 3228,
      "No": 3229,
      "\u0120claims": 3230,
      "\u0120quality": 3231,
      "FL": 3232,
      "anced": 3233,
      "\u0120jobs": 3234,
      "\u0120Che": 3235,
      "\u0120implement": 3236,
      "\u0120carry": 3237,
      "ara": 3238,
      "\u0120aren": 3239,
      "reedom": 3240,
      "\u0120Russian": 3241,
      "\u0120Donald": 3242,
      "rast": 3243,
      "\u0120danger": 3244,
      "\u0120resour": 3245,
      "\u0120Saturday": 3246,
      "\u0120Em": 3247,
      "ari": 3248,
      "room": 3249,
      "oul": 3250,
      "\u0120laws": 3251,
      "set": 3252,
      "\u0120finally": 3253,
      "\u0120middle": 3254,
      "\u0120inn": 3255,
      "ida": 3256,
      "hers": 3257,
      "\u0120cele": 3258,
      "entially": 3259,
      "\u0120interesting": 3260,
      "\u0120Jew": 3261,
      "\u0120assist": 3262,
      "ny": 3263,
      "isions": 3264,
      "\u0120sometimes": 3265,
      "\u0120*": 3266,
      "\u0120voters": 3267,
      "\u0120changed": 3268,
      "She": 3269,
      "\u0120London": 3270,
      "\u0120histor": 3271,
      "\u0120ones": 3272,
      "\u0120remains": 3273,
      "\u0120purch": 3274,
      "\u0120costs": 3275,
      "\u0120hous": 3276,
      "\u0120modern": 3277,
      "arr": 3278,
      "abor": 3279,
      "inated": 3280,
      "zz": 3281,
      "\u0120imag": 3282,
      "\u0120il": 3283,
      "\u0120certainly": 3284,
      "\u0120chief": 3285,
      "\u0120perhaps": 3286,
      "\u0120natural": 3287,
      "\u0120dog": 3288,
      "unch": 3289,
      "\u0120giving": 3290,
      "\u0120Net": 3291,
      "\u0120Republicans": 3292,
      "ously": 3293,
      "\u0120remain": 3294,
      "\u0120answer": 3295,
      "lin": 3296,
      "\u0120science": 3297,
      "\u0120movie": 3298,
      "\u012028": 3299,
      "\u0120writing": 3300,
      "\u0120standard": 3301,
      "BI": 3302,
      "\u0120term": 3303,
      "\u0120software": 3304,
      "\u0120paid": 3305,
      "\u0120Cons": 3306,
      "\u0120showed": 3307,
      "aught": 3308,
      "\u0120thinking": 3309,
      "\u0120starting": 3310,
      "OP": 3311,
      "\u012026": 3312,
      "uclear": 3313,
      "\u0120reality": 3314,
      "erc": 3315,
      "\u0120parts": 3316,
      "\u0120camer": 3317,
      "\u0120property": 3318,
      "\u0120violence": 3319,
      "inary": 3320,
      "\u0120table": 3321,
      "\u0120continued": 3322,
      "\u0120Coun": 3323,
      "hib": 3324,
      "rench": 3325,
      "ospital": 3326,
      "\u0120football": 3327,
      "\u0120provided": 3328,
      "\u0120guy": 3329,
      "\u0120details": 3330,
      "\u0120purp": 3331,
      "\u0120ready": 3332,
      "icted": 3333,
      "\u0120League": 3334,
      "\u0120Spe": 3335,
      "\u0120additional": 3336,
      "\u0120died": 3337,
      "utions": 3338,
      "\u0120summer": 3339,
      "\u0120East": 3340,
      "\u0120directly": 3341,
      "\u0120More": 3342,
      "\u0120February": 3343,
      "add": 3344,
      "\u0120maintain": 3345,
      "\u0120income": 3346,
      "\u0120damage": 3347,
      "\u0120Chinese": 3348,
      "\u0120growing": 3349,
      "\u0120ment": 3350,
      "ension": 3351,
      "vertisement": 3352,
      "overed": 3353,
      "23": 3354,
      "\u0120kids": 3355,
      "\u0120Even": 3356,
      "\u0120climate": 3357,
      "\u0120speech": 3358,
      "\u0120mill": 3359,
      "\u0120comments": 3360,
      "\u0120surv": 3361,
      "\u0120region": 3362,
      "\u0120beyond": 3363,
      "itch": 3364,
      "\u0120multiple": 3365,
      "\u0120cross": 3366,
      "\u0120quarter": 3367,
      "icks": 3368,
      "\u0120although": 3369,
      "\u0120Char": 3370,
      "\u0120reading": 3371,
      "\u0120unf": 3372,
      "\u0120ten": 3373,
      "akers": 3374,
      "\u0120usually": 3375,
      "\u0120Indian": 3376,
      "\u0120safe": 3377,
      "\u0120aw": 3378,
      "atever": 3379,
      "cient": 3380,
      "ression": 3381,
      "astic": 3382,
      "29": 3383,
      "sp": 3384,
      "imum": 3385,
      "\u0120counter": 3386,
      "\u0120scene": 3387,
      "\u0120...": 3388,
      "adem": 3389,
      "\u0120Bill": 3390,
      "\u0120choice": 3391,
      "\u0120band": 3392,
      "\u0120select": 3393,
      "\u0120safety": 3394,
      "ications": 3395,
      "\u0120wouldn": 3396,
      "\u0120culture": 3397,
      "\u0120officer": 3398,
      "\u0120ut": 3399,
      "mit": 3400,
      "\u0120Int": 3401,
      "egr": 3402,
      "\u0120(@": 3403,
      "\u0120resear": 3404,
      "using": 3405,
      "\u0120century": 3406,
      "\u0120Gener": 3407,
      "\u0120figure": 3408,
      "\u0120efforts": 3409,
      "\u0120nom": 3410,
      "\u0120complex": 3411,
      "\u0120concept": 3412,
      "\u0120corpor": 3413,
      "oper": 3414,
      "\u0120designed": 3415,
      "\u0120tro": 3416,
      "Now": 3417,
      "\u0120Michael": 3418,
      "\u0120James": 3419,
      "\u0120McC": 3420,
      "\u0120computer": 3421,
      "rowd": 3422,
      "\u0120First": 3423,
      "ables": 3424,
      "\u0120option": 3425,
      "amb": 3426,
      "\u0120platform": 3427,
      "aughter": 3428,
      "IT": 3429,
      "\u0120Des": 3430,
      "\u0120Minister": 3431,
      "\u0120relative": 3432,
      "\u0120couldn": 3433,
      "ias": 3434,
      "\u0120recomm": 3435,
      "\u0120wife": 3436,
      "\u0120sexual": 3437,
      "iny": 3438,
      "enge": 3439,
      "ago": 3440,
      "\u0120rout": 3441,
      "\u0120Then": 3442,
      "\u0120title": 3443,
      "\u0120rock": 3444,
      "\u0120pressure": 3445,
      "\u0120education": 3446,
      "ivity": 3447,
      "\u0120difference": 3448,
      "\u0120debate": 3449,
      "\u0120\u00e2": 3450,
      "\u0120consist": 3451,
      "27": 3452,
      "ampions": 3453,
      "\u0120thousands": 3454,
      "\u0120presidential": 3455,
      "\u00e2\u0122\u0136\u00e2\u0122\u0136\u00e2\u0122\u0136\u00e2\u0122\u0136": 3456,
      "\u0120cast": 3457,
      "\u0120\u00e2\u0122\u00a6": 3458,
      "\u0120alone": 3459,
      "ares": 3460,
      "\u0120includes": 3461,
      "\u0120park": 3462,
      "urg": 3463,
      "\u0120write": 3464,
      "\u0120hom": 3465,
      "\u0120Ser": 3466,
      "\u0120throughout": 3467,
      "\u0120sat": 3468,
      "urt": 3469,
      "\u0120towards": 3470,
      "\u0120guys": 3471,
      "\u0120\u00c2\u00a3": 3472,
      "\u0120II": 3473,
      "\u0120command": 3474,
      "\u0120mob": 3475,
      "\u0120center": 3476,
      "ford": 3477,
      "itor": 3478,
      "\u0120suspect": 3479,
      "wise": 3480,
      "aches": 3481,
      "\u0120reasons": 3482,
      "\u0120gone": 3483,
      "\u0120tour": 3484,
      "\u0120cris": 3485,
      "\u0120receive": 3486,
      "rupt": 3487,
      "\u0120clean": 3488,
      "hest": 3489,
      "\u0120Tor": 3490,
      "\u0120}": 3491,
      "\u0120disapp": 3492,
      "\u0120EU": 3493,
      "ufact": 3494,
      "\u0120passed": 3495,
      "\u0120ver": 3496,
      "\u0120file": 3497,
      "\u0120letter": 3498,
      "\u0120Serv": 3499,
      "\u0120sell": 3500,
      "Im": 3501,
      "de": 3502,
      "\u0120conditions": 3503,
      "\u0120Mex": 3504,
      "\u0120immediately": 3505,
      "itute": 3506,
      "airs": 3507,
      "\u0120copy": 3508,
      "ilies": 3509,
      "urance": 3510,
      "\u0120moved": 3511,
      "\u0120Texas": 3512,
      "rief": 3513,
      "\u0120Rich": 3514,
      "\u0120piece": 3515,
      "ustr": 3516,
      "\u0120ign": 3517,
      "\u0120citizens": 3518,
      "\u0120deg": 3519,
      "iles": 3520,
      "\u0120cool": 3521,
      "icient": 3522,
      "omen": 3523,
      "\u0120Associ": 3524,
      "\u0120sil": 3525,
      "\u0120conference": 3526,
      "\u0120Germany": 3527,
      "\u0120Ne": 3528,
      "\u0120Bo": 3529,
      "anch": 3530,
      "\u0120alleged": 3531,
      "\u0120launch": 3532,
      "\u0120Mon": 3533,
      "\u0120rob": 3534,
      "itness": 3535,
      "ston": 3536,
      "\u0120Apple": 3537,
      "oes": 3538,
      "\u0120Sim": 3539,
      "\u0120failed": 3540,
      "\u0120196": 3541,
      "\u0120ahead": 3542,
      "\u0120clos": 3543,
      "\u0120opin": 3544,
      "\u00d0\u00b5": 3545,
      "etro": 3546,
      "new": 3547,
      "\u0120toward": 3548,
      "\u0120Green": 3549,
      "irth": 3550,
      "bum": 3551,
      "\u0120meant": 3552,
      "\u0120organization": 3553,
      "\u0120date": 3554,
      "\u0120agency": 3555,
      "\u0120student": 3556,
      "All": 3557,
      "\u0120swe": 3558,
      "\u0120Democrats": 3559,
      "\u0120subst": 3560,
      "\u0120nature": 3561,
      "just": 3562,
      "\u0120contribut": 3563,
      "\u0120schools": 3564,
      "\u0120stage": 3565,
      "\u0120Of": 3566,
      "\u0120encour": 3567,
      "\u0120appears": 3568,
      "\u0120remember": 3569,
      "\u0120largest": 3570,
      "orney": 3571,
      "--------": 3572,
      "45": 3573,
      "\u0120analysis": 3574,
      "\u0120grad": 3575,
      "\u0120effects": 3576,
      "\u0120beginning": 3577,
      "olute": 3578,
      "\u0120happy": 3579,
      "\u0120religious": 3580,
      "roy": 3581,
      "\u0120shown": 3582,
      "OT": 3583,
      "\u0120estim": 3584,
      "\u0120criminal": 3585,
      "\u0120prec": 3586,
      "\u0120device": 3587,
      "\u0120challeng": 3588,
      "\u0120trust": 3589,
      "ocked": 3590,
      "21": 3591,
      "\u0120battle": 3592,
      "\u0120illeg": 3593,
      "agon": 3594,
      "aud": 3595,
      "AD": 3596,
      "\u0120epis": 3597,
      "\u0120wall": 3598,
      "aint": 3599,
      "\u0120score": 3600,
      "\u0120helped": 3601,
      "itation": 3602,
      "\u0120drive": 3603,
      "\u0120moving": 3604,
      "craft": 3605,
      "venue": 3606,
      "\u0120eventually": 3607,
      "My": 3608,
      "\u0120note": 3609,
      "orks": 3610,
      "\u0120sche": 3611,
      "\u0120celebr": 3612,
      "26": 3613,
      "\u0120esc": 3614,
      "\u0120nuclear": 3615,
      "\u0120>": 3616,
      "\u0120dark": 3617,
      "\u0120Earth": 3618,
      "berg": 3619,
      "\u0120spending": 3620,
      "35": 3621,
      "\u0120meaning": 3622,
      "\u0120ang": 3623,
      "\u0120autom": 3624,
      "\u0120limited": 3625,
      "\u0120myself": 3626,
      "\u0120sle": 3627,
      "more": 3628,
      "\u0120decades": 3629,
      "\u0120fan": 3630,
      "ero": 3631,
      "\u0120eyes": 3632,
      "Don": 3633,
      "ken": 3634,
      "arian": 3635,
      "\u012060": 3636,
      "\u0120yourself": 3637,
      "\u0120confir": 3638,
      "encies": 3639,
      "\u0120powerful": 3640,
      "\u0120feature": 3641,
      "\u0120signed": 3642,
      "\u0120Mart": 3643,
      "\u0120compared": 3644,
      "\u0120frequ": 3645,
      "\u0120refer": 3646,
      "\u0120crime": 3647,
      "\u0120crowd": 3648,
      "\u0120gives": 3649,
      "New": 3650,
      "\u0120followed": 3651,
      "wood": 3652,
      "\u0120aware": 3653,
      "\u0120disp": 3654,
      "enty": 3655,
      "Re": 3656,
      "yan": 3657,
      "\u0120forced": 3658,
      "\u0120blog": 3659,
      "\u0120aim": 3660,
      "\u0120Smith": 3661,
      "\u0120Tur": 3662,
      "iring": 3663,
      "\u0120overall": 3664,
      "men": 3665,
      "\u0120Police": 3666,
      "\u0120books": 3667,
      "\u0120budget": 3668,
      "\u0120arch": 3669,
      "ester": 3670,
      "\u0120TH": 3671,
      "\u0120Air": 3672,
      "\u0120charge": 3673,
      "\u0120demonstr": 3674,
      "\u0120Jack": 3675,
      "\u0120plant": 3676,
      "\u0120executive": 3677,
      "\u012029": 3678,
      "nown": 3679,
      "\u0120politics": 3680,
      "\u0120susp": 3681,
      "\u0120English": 3682,
      "raight": 3683,
      "rs": 3684,
      "\u0120feed": 3685,
      "\u0120candidate": 3686,
      "\u0120Super": 3687,
      "\u0120projects": 3688,
      "uing": 3689,
      "\u0120necessary": 3690,
      "28": 3691,
      "\u0120maybe": 3692,
      "\u0120easily": 3693,
      "\u0120league": 3694,
      "\u0120Rober": 3695,
      "\u0120crisis": 3696,
      "ports": 3697,
      "By": 3698,
      "\u0120George": 3699,
      "\u0120brain": 3700,
      "lease": 3701,
      "\u0120Here": 3702,
      "bon": 3703,
      "\u0120print": 3704,
      "\u0120families": 3705,
      "inn": 3706,
      "\u0120Jer": 3707,
      "\u0120truth": 3708,
      "\u0120noted": 3709,
      "\u0120psych": 3710,
      "\u0120policies": 3711,
      "owers": 3712,
      "\u0120actions": 3713,
      "\u0120uses": 3714,
      "\u0120detail": 3715,
      "dom": 3716,
      "uty": 3717,
      "ado": 3718,
      "Is": 3719,
      "\u0120allows": 3720,
      "Pro": 3721,
      "\u0120ideas": 3722,
      "\u0120streng": 3723,
      "sey": 3724,
      "\u0120developed": 3725,
      "\u0120twe": 3726,
      "Be": 3727,
      "\u0120Day": 3728,
      "riage": 3729,
      "\u0120college": 3730,
      "\u0120gold": 3731,
      "\u0120altern": 3732,
      "\u0120senior": 3733,
      "According": 3734,
      "\u0120continues": 3735,
      "\u0120promot": 3736,
      "\u0120spot": 3737,
      "erved": 3738,
      "\u0120x": 3739,
      "\u0120reached": 3740,
      "\u0120mix": 3741,
      "\u0120Cap": 3742,
      "iced": 3743,
      "\u0120Bel": 3744,
      "\u0120smart": 3745,
      "\u0120expand": 3746,
      "\u0120unique": 3747,
      "\u0120customers": 3748,
      "\u0120Govern": 3749,
      "ean": 3750,
      "\u0120throw": 3751,
      "\u0120avoid": 3752,
      "\u0120individuals": 3753,
      "board": 3754,
      "\u0120Ben": 3755,
      "\u0120voice": 3756,
      "band": 3757,
      "\u0120lif": 3758,
      "onents": 3759,
      "orter": 3760,
      "\u0120manufact": 3761,
      "\u0120physical": 3762,
      "cul": 3763,
      "iable": 3764,
      "\u0120appeared": 3765,
      "\u0120rap": 3766,
      "\u0120previously": 3767,
      "\u0120rates": 3768,
      "\u0120International": 3769,
      "\u0120Union": 3770,
      "\u0120traff": 3771,
      "\u0120characters": 3772,
      "\u0120weapons": 3773,
      "\u0120French": 3774,
      "ube": 3775,
      "\u0120School": 3776,
      "EC": 3777,
      "\u0120kept": 3778,
      "\u0120brother": 3779,
      "ressed": 3780,
      "chan": 3781,
      "\u0120sto": 3782,
      "\u0120reform": 3783,
      "\u00e3\u0124": 3784,
      "\u0120bal": 3785,
      "change": 3786,
      "\u0120related": 3787,
      "IA": 3788,
      "\u0120Angel": 3789,
      "Un": 3790,
      "\u0120touch": 3791,
      "100": 3792,
      "\u0120lic": 3793,
      "\u0120emb": 3794,
      "\u0120grand": 3795,
      "\u0120positive": 3796,
      "\u0120nice": 3797,
      "\u0120pus": 3798,
      "\u0120firm": 3799,
      "\u0120spir": 3800,
      "\u0120prem": 3801,
      "\u0120treatment": 3802,
      "\u0120High": 3803,
      "\u0120benefits": 3804,
      "\u0120advant": 3805,
      "\u0120enforce": 3806,
      "\u0120Val": 3807,
      "\u0120Syria": 3808,
      "\u0120conflic": 3809,
      "secut": 3810,
      "\u0120studies": 3811,
      "\u0120spread": 3812,
      "itely": 3813,
      "\u0120measure": 3814,
      "\u0120Australia": 3815,
      "\u0120Council": 3816,
      "\u0120lines": 3817,
      "\u0120minor": 3818,
      "iance": 3819,
      "Some": 3820,
      "\u0120style": 3821,
      "):": 3822,
      "ae": 3823,
      "\u0120cities": 3824,
      "\u0120charges": 3825,
      "\u0120places": 3826,
      "\u0120central": 3827,
      "\u0120agreement": 3828,
      "part": 3829,
      "oti": 3830,
      "\u0120Ant": 3831,
      "\u0120cat": 3832,
      "\u0120apparent": 3833,
      "\u0120Comp": 3834,
      "\u0120web": 3835,
      "\u0120album": 3836,
      "olic": 3837,
      "\u0120display": 3838,
      "\u0120feet": 3839,
      "\u0120credit": 3840,
      "\u01202007": 3841,
      "AP": 3842,
      "\u0120Dis": 3843,
      "\u0120highly": 3844,
      "\u0120minister": 3845,
      "\u0120\u00c3": 3846,
      "hi": 3847,
      "\u0120temper": 3848,
      "\u0120draft": 3849,
      "\u0120intelligence": 3850,
      "70": 3851,
      "\u0120caused": 3852,
      "lements": 3853,
      "\u0120activity": 3854,
      "\u00d0\u00b8": 3855,
      "box": 3856,
      "\u0120door": 3857,
      "\u0120fully": 3858,
      "resh": 3859,
      "\u0120analy": 3860,
      "\u0120correct": 3861,
      "\u0120goals": 3862,
      "\u0120Play": 3863,
      "90": 3864,
      "\u0120knowledge": 3865,
      "yl": 3866,
      "\u0120larger": 3867,
      "\u0120determin": 3868,
      "\u0120claimed": 3869,
      "que": 3870,
      "ategy": 3871,
      "while": 3872,
      "\u0120successful": 3873,
      "\u0120rule": 3874,
      "\u0120impl": 3875,
      "\u0120shooting": 3876,
      "\u0120color": 3877,
      "\u0120greater": 3878,
      "see": 3879,
      "\u0120clearly": 3880,
      "antly": 3881,
      "\u0120incident": 3882,
      "\u0120Rob": 3883,
      "orida": 3884,
      "alse": 3885,
      "\u0120adop": 3886,
      "\u0120indic": 3887,
      "\u0120Arab": 3888,
      "\u0120knows": 3889,
      "\u0120rare": 3890,
      "\u0120Brown": 3891,
      "\u0120Bre": 3892,
      "\u0120From": 3893,
      "iven": 3894,
      "\u0120push": 3895,
      "\u0120beaut": 3896,
      "\u0120fighting": 3897,
      "\u0120sales": 3898,
      "\u0120har": 3899,
      "pre": 3900,
      "\u0120primary": 3901,
      "amm": 3902,
      "\u0120status": 3903,
      "\u0120mist": 3904,
      "\u0120pun": 3905,
      "iverse": 3906,
      "\u0120straight": 3907,
      "\u0120calling": 3908,
      "roll": 3909,
      "\u0120Bit": 3910,
      "\u0120fine": 3911,
      "\u0120Tom": 3912,
      "iled": 3913,
      "rial": 3914,
      "\u0120Ber": 3915,
      "Advertisement": 3916,
      ".\u00e2\u0122\u013b": 3917,
      "\u0120challenge": 3918,
      "33": 3919,
      "icago": 3920,
      "\u0120spend": 3921,
      "\u0120attract": 3922,
      "\u0120rise": 3923,
      "\u0120ended": 3924,
      "\u0120patients": 3925,
      "OM": 3926,
      "ifying": 3927,
      "pen": 3928,
      "\u0120seemed": 3929,
      "oday": 3930,
      "\u0120supposed": 3931,
      "\u0120integr": 3932,
      "\u0120Christian": 3933,
      "\u0120Wind": 3934,
      "\u0120willing": 3935,
      "\u0120enem": 3936,
      "SA": 3937,
      "term": 3938,
      "\u0120save": 3939,
      "\u0120adding": 3940,
      "\u0120resources": 3941,
      "\u0120owners": 3942,
      "ength": 3943,
      "\u0120authorities": 3944,
      "\u0120options": 3945,
      "\u0120Bush": 3946,
      "\u0120acqu": 3947,
      "\u0120drop": 3948,
      "\u0120peace": 3949,
      "aith": 3950,
      "\u0120normal": 3951,
      "\u0120names": 3952,
      "\u0120Most": 3953,
      "Ar": 3954,
      "\u0120beat": 3955,
      "\u0120regular": 3956,
      "\u0120Law": 3957,
      "\u0120leaving": 3958,
      "\u0120dise": 3959,
      "\u0120mostly": 3960,
      "\u0120Franc": 3961,
      "\u0120Every": 3962,
      "spect": 3963,
      "icit": 3964,
      "\u0120ir": 3965,
      "\u0120organiz": 3966,
      "\u0120whatever": 3967,
      "ki": 3968,
      "\u0120reflect": 3969,
      "ET": 3970,
      "\u0120Rec": 3971,
      "\u0120qual": 3972,
      "\u0120send": 3973,
      "\u0120massive": 3974,
      "\u0120shut": 3975,
      "\u0120Internet": 3976,
      "clus": 3977,
      "earch": 3978,
      "org": 3979,
      "\u0120manager": 3980,
      "wide": 3981,
      "ounds": 3982,
      "\u0120hospital": 3983,
      "\u0120trou": 3984,
      "\u0120sources": 3985,
      "\u0120liter": 3986,
      "\u0120green": 3987,
      "\u0120jump": 3988,
      "Here": 3989,
      "\u0120lik": 3990,
      "iders": 3991,
      "ocks": 3992,
      "ona": 3993,
      "\u0120raised": 3994,
      "\u0120station": 3995,
      "oly": 3996,
      "\u0120lawy": 3997,
      "roid": 3998,
      "\u0120France": 3999,
      "ID": 4000,
      "\u0120district": 4001,
      "\u0120creating": 4002,
      "\u0120researchers": 4003,
      "ram": 4004,
      "\u0120vac": 4005,
      "\u0120concerns": 4006,
      "\u0120haven": 4007,
      "\u0120slight": 4008,
      "\u0120employees": 4009,
      "\u0120funding": 4010,
      "vere": 4011,
      "\u0120According": 4012,
      "\u0120programs": 4013,
      "\u0120Gold": 4014,
      "\u0120restr": 4015,
      "EO": 4016,
      "net": 4017,
      "\u0120rank": 4018,
      "\u0120birth": 4019,
      "\u0120Mag": 4020,
      "\u0120judge": 4021,
      ".'": 4022,
      "\u0120fat": 4023,
      "\u0120whom": 4024,
      "\u0120basic": 4025,
      "\u0120Trans": 4026,
      "\u0120teac": 4027,
      "levision": 4028,
      "\u0120cars": 4029,
      "\u0120beg": 4030,
      "mark": 4031,
      "\u00e2\u0122\u013f,": 4032,
      "\u0120absolute": 4033,
      "\u0120ship": 4034,
      "\u0120England": 4035,
      "\u0120Bay": 4036,
      "\u0120offered": 4037,
      "\u0120parties": 4038,
      "\u0120mount": 4039,
      "\u0120Florida": 4040,
      "Not": 4041,
      "oles": 4042,
      "\u0120cry": 4043,
      "www": 4044,
      "\u0120Well": 4045,
      "\u0120mer": 4046,
      "\u0120actual": 4047,
      "\u0120believed": 4048,
      "lick": 4049,
      "\u0120Def": 4050,
      "\u0120eye": 4051,
      "\u0120General": 4052,
      "\u0120Up": 4053,
      "ribution": 4054,
      "icial": 4055,
      "\u0120AM": 4056,
      "\u0120commer": 4057,
      "\u0120strategy": 4058,
      "\u0120Let": 4059,
      "\u0120dollars": 4060,
      "\u0120Lou": 4061,
      "\u0120happens": 4062,
      "ota": 4063,
      "ront": 4064,
      "\u0120theory": 4065,
      "\u0120prices": 4066,
      "\u0120emot": 4067,
      "\u0120ensure": 4068,
      "\u0120mechan": 4069,
      "\u0120traditional": 4070,
      "Con": 4071,
      "\u0120Stud": 4072,
      "rol": 4073,
      "\u0120appl": 4074,
      "\u0120feeling": 4075,
      "\u0120female": 4076,
      "ica": 4077,
      "\u0120Scott": 4078,
      "\u0120perm": 4079,
      "\u0120seeing": 4080,
      "\u0120posted": 4081,
      "\u0120Liber": 4082,
      "ection": 4083,
      "\u0120Sanders": 4084,
      "\u0120freedom": 4085,
      "pri": 4086,
      "\u0120Del": 4087,
      "\u0120records": 4088,
      "\u0120brief": 4089,
      "\u0120Western": 4090,
      "uman": 4091,
      "\u0120propos": 4092,
      "udd": 4093,
      "\u0120weekend": 4094,
      "ser": 4095,
      "\u0120Reg": 4096,
      "\u0120scen": 4097,
      "ste": 4098,
      "\u0120Mac": 4099,
      "\u0120arrested": 4100,
      "\u0120behavior": 4101,
      "ords": 4102,
      "\u0120virt": 4103,
      "ingly": 4104,
      "\u0120confirmed": 4105,
      "\u0120coverage": 4106,
      "\u0120produced": 4107,
      "ya": 4108,
      "\u0120mur": 4109,
      "\u0120adult": 4110,
      "\u0120produce": 4111,
      "\u0120tend": 4112,
      "\u0120asking": 4113,
      "\u0120coal": 4114,
      "\u0120choose": 4115,
      "\u0120People": 4116,
      "\u0120commit": 4117,
      "\u0120investment": 4118,
      "\u0120vs": 4119,
      "\u0120street": 4120,
      "\u0120revealed": 4121,
      "\u0120install": 4122,
      "\u0120learned": 4123,
      "\u0120independent": 4124,
      "ville": 4125,
      "500": 4126,
      "\u0120application": 4127,
      "\u0120wild": 4128,
      "\u0120worse": 4129,
      "\u0120assault": 4130,
      "\u0120chair": 4131,
      "\u0120chem": 4132,
      "\u0120values": 4133,
      "\u0120advoc": 4134,
      "\u0120Mo": 4135,
      "\u0120wonder": 4136,
      "\u0120critical": 4137,
      "\u0120wait": 4138,
      "\u0120memory": 4139,
      "istry": 4140,
      "igned": 4141,
      "Ex": 4142,
      "acing": 4143,
      "\u0120agreed": 4144,
      "\u0120influence": 4145,
      "\u0120Port": 4146,
      "aked": 4147,
      "\u0120interested": 4148,
      "\u0120Alex": 4149,
      "orial": 4150,
      "\u0120section": 4151,
      "\u0120weight": 4152,
      "\u0120Chicago": 4153,
      "\u0120surround": 4154,
      "\u0120bur": 4155,
      "\u0120benefit": 4156,
      "ada": 4157,
      "\u0120vill": 4158,
      "uild": 4159,
      "\u0120dire": 4160,
      "\u0120Mod": 4161,
      "bert": 4162,
      "ags": 4163,
      "44": 4164,
      "ented": 4165,
      "inger": 4166,
      "\u0120defend": 4167,
      "rey": 4168,
      "\u0120trial": 4169,
      "\u0120Sun": 4170,
      "\u0120Hall": 4171,
      "iation": 4172,
      "outhern": 4173,
      "\u0120Church": 4174,
      "\u0120tick": 4175,
      "olf": 4176,
      "37": 4177,
      "vest": 4178,
      "\u0120Why": 4179,
      "\u0120eth": 4180,
      "\u0120brand": 4181,
      "\u0120Hillary": 4182,
      "irgin": 4183,
      "\u0120etc": 4184,
      "\u0120core": 4185,
      "\u012080": 4186,
      "\u00e2\u0122\u00a2": 4187,
      "\u0120Cup": 4188,
      "\u0120church": 4189,
      "\u0120politic": 4190,
      "no": 4191,
      "\u0120AP": 4192,
      "itude": 4193,
      "\u0120negoti": 4194,
      "\u0120border": 4195,
      "\u0120operations": 4196,
      "\u0120runs": 4197,
      "36": 4198,
      "ties": 4199,
      "\u0120mission": 4200,
      "\u0120images": 4201,
      "\u0120showing": 4202,
      "\u0120Phil": 4203,
      "cell": 4204,
      "\u0120defe": 4205,
      "\u0120illegal": 4206,
      "\u0120lose": 4207,
      "\u0120kick": 4208,
      "\u0120responsible": 4209,
      "\u0120Press": 4210,
      "\u0120notice": 4211,
      "\u0120Other": 4212,
      "\u0120establish": 4213,
      "\u0120residents": 4214,
      "\u0120arm": 4215,
      "\u0120provides": 4216,
      "\u0120neighbor": 4217,
      "\u0120male": 4218,
      "etty": 4219,
      "\u0120Because": 4220,
      "cience": 4221,
      "ING": 4222,
      "well": 4223,
      "\u0120opposition": 4224,
      "\u0120Canadian": 4225,
      "illing": 4226,
      "\u0120wat": 4227,
      "estic": 4228,
      "soft": 4229,
      "\u0120debt": 4230,
      "\u0120Commission": 4231,
      "\u0120learning": 4232,
      "These": 4233,
      "\u0120species": 4234,
      "\u0120picture": 4235,
      "cont": 4236,
      "rog": 4237,
      "mar": 4238,
      "lands": 4239,
      "ictions": 4240,
      "\u0120marriage": 4241,
      "\u0120devices": 4242,
      "\u0120favorite": 4243,
      "uana": 4244,
      "\u012035": 4245,
      "\u0120replace": 4246,
      "\u0120cru": 4247,
      "\u0120Our": 4248,
      "icip": 4249,
      "\u0120thus": 4250,
      "\u0120shared": 4251,
      "\u0120driver": 4252,
      "za": 4253,
      "\u0120Secret": 4254,
      "\u0120drink": 4255,
      "\u0120Oh": 4256,
      "\u0120Britain": 4257,
      "\u0120bottom": 4258,
      "\u0120enter": 4259,
      "\u0120generally": 4260,
      "\u0120limit": 4261,
      "\u0120documents": 4262,
      "\u0120Justice": 4263,
      "However": 4264,
      "\u0120camera": 4265,
      "\u0120millions": 4266,
      "\u0120advantage": 4267,
      "\u0120heavy": 4268,
      "\u0120insurance": 4269,
      "orrow": 4270,
      "asion": 4271,
      "\u00e3\u0125": 4272,
      "ghan": 4273,
      "\u0120teach": 4274,
      "\u0120Inc": 4275,
      "la": 4276,
      "\u0120train": 4277,
      "acity": 4278,
      "01": 4279,
      "\u0120NFL": 4280,
      "\u0120solution": 4281,
      "ading": 4282,
      "aby": 4283,
      "\u0120explained": 4284,
      "\u0120digital": 4285,
      "orthern": 4286,
      "\u012031": 4287,
      "coming": 4288,
      "\u0120assum": 4289,
      "\u0120issued": 4290,
      "\u0120electric": 4291,
      "\u0120der": 4292,
      "\u0120served": 4293,
      "\u0120highest": 4294,
      "\u0120understanding": 4295,
      "EL": 4296,
      "\u0120becoming": 4297,
      "\u0120join": 4298,
      "SP": 4299,
      "\u0120hearing": 4300,
      "known": 4301,
      "\u0120Great": 4302,
      "mine": 4303,
      "onent": 4304,
      "\u0120resist": 4305,
      "liament": 4306,
      "otten": 4307,
      "\u0120hundreds": 4308,
      "\u0120winning": 4309,
      "\u0120separate": 4310,
      "\u0120obtain": 4311,
      "Sc": 4312,
      "\u0120initial": 4313,
      "\u0120onto": 4314,
      "lished": 4315,
      "rav": 4316,
      "\u0120fit": 4317,
      "\u0120stated": 4318,
      "\u0120effective": 4319,
      "\u0120basis": 4320,
      "ugg": 4321,
      "\u0120Office": 4322,
      "\u0120rat": 4323,
      "\u0120extremely": 4324,
      "\u0120opinion": 4325,
      "lo": 4326,
      "32": 4327,
      "\u0120controvers": 4328,
      "\u0120traffic": 4329,
      "\u0120bomb": 4330,
      "rian": 4331,
      "\u0120reject": 4332,
      "\u0120Committee": 4333,
      "\u0120enforcement": 4334,
      "ijuana": 4335,
      "\u0120Over": 4336,
      "\u0120partners": 4337,
      "\u0120condition": 4338,
      "ography": 4339,
      "\u00d1\u0124": 4340,
      "nel": 4341,
      "\u0120ran": 4342,
      "\u0120Wall": 4343,
      "\u0120returned": 4344,
      "\u0120sun": 4345,
      "\u0120daughter": 4346,
      "\u0120becomes": 4347,
      "\u0120Health": 4348,
      "38": 4349,
      "BA": 4350,
      "uries": 4351,
      "ipped": 4352,
      "\u0120Mal": 4353,
      "\u0120Found": 4354,
      "\u0120legislation": 4355,
      "\u00c4\u0125": 4356,
      "OU": 4357,
      "64": 4358,
      "\u0120types": 4359,
      "do": 4360,
      "\u0120Francis": 4361,
      "\u0120map": 4362,
      "\u0120management": 4363,
      "\u0120photo": 4364,
      "\u0120internet": 4365,
      "\u0120announce": 4366,
      "\u0120dangerous": 4367,
      "\u0120active": 4368,
      "\u0120destroy": 4369,
      "\u0120cook": 4370,
      "\u0120structure": 4371,
      "34": 4372,
      "\u0120Your": 4373,
      "\u0120achieve": 4374,
      "\u0120items": 4375,
      "\u0120Cr": 4376,
      "\u0120Mike": 4377,
      "\u0120amaz": 4378,
      "\u0120miles": 4379,
      "rig": 4380,
      "\u0120Sam": 4381,
      "iller": 4382,
      "\u0120proposed": 4383,
      "====": 4384,
      "GB": 4385,
      "ios": 4386,
      "\u0120audience": 4387,
      "\u0120Korea": 4388,
      "ipe": 4389,
      "\u0120incred": 4390,
      "\u0120explain": 4391,
      "\u0120Ro": 4392,
      "level": 4393,
      "\u0120Bank": 4394,
      "\u0120putting": 4395,
      "equ": 4396,
      "\u0120Game": 4397,
      "\u0120television": 4398,
      "\u0120serve": 4399,
      "FC": 4400,
      "fe": 4401,
      "\u0120spl": 4402,
      "\u01202006": 4403,
      "ocr": 4404,
      "\u0120opened": 4405,
      "\u0120north": 4406,
      "\u0120Sup": 4407,
      "\u0120pattern": 4408,
      "zen": 4409,
      "\u0120accused": 4410,
      "\u0120strik": 4411,
      "\u0120false": 4412,
      "\u0120easier": 4413,
      "\u0120Many": 4414,
      "\u0120Ev": 4415,
      "\u0120dism": 4416,
      "inate": 4417,
      "\u0120compar": 4418,
      "\u0120opening": 4419,
      "\u0120doubt": 4420,
      "\u0120victory": 4421,
      "ibrary": 4422,
      "\u0120categ": 4423,
      "atically": 4424,
      "39": 4425,
      "\u0120generation": 4426,
      "\u0120Palest": 4427,
      "ortunately": 4428,
      "\u0120cards": 4429,
      "\u0120transfer": 4430,
      "\u0120hack": 4431,
      "osh": 4432,
      "Mr": 4433,
      "\u0120faith": 4434,
      "\u0120hero": 4435,
      "krain": 4436,
      "\u0120nine": 4437,
      "house": 4438,
      "\u0120Att": 4439,
      "\u0120offers": 4440,
      "\u0120appeal": 4441,
      "\u0120sites": 4442,
      "\u0120purpose": 4443,
      "omas": 4444,
      "ription": 4445,
      "\u0120supported": 4446,
      "\u0120daily": 4447,
      "\u0120associated": 4448,
      "\u0120argument": 4449,
      "\u0120born": 4450,
      "\u0120competition": 4451,
      "\u0120Mil": 4452,
      "\u0120victims": 4453,
      "\u0120Security": 4454,
      "\u0120Commun": 4455,
      "ampionship": 4456,
      "\u0120comfort": 4457,
      "\u0120committee": 4458,
      "\u0120Ter": 4459,
      "\u0120unlike": 4460,
      "witch": 4461,
      "OL": 4462,
      "\u00d0\u00bd": 4463,
      "\u0120existing": 4464,
      "\u0120machine": 4465,
      "\u0120professional": 4466,
      "\u0120instance": 4467,
      "\u0120spoke": 4468,
      "istics": 4469,
      "\u0120refere": 4470,
      "\u0120department": 4471,
      "\u0120micro": 4472,
      "\u0120wealth": 4473,
      "\u0120labor": 4474,
      "ancy": 4475,
      "\u0120Sal": 4476,
      "\u0120closed": 4477,
      "\u0120Afghan": 4478,
      "\u0120supporters": 4479,
      "!!!!!!!!!!!!!!!!": 4480,
      "\u0120episode": 4481,
      "\u0120frame": 4482,
      "\u0120reduce": 4483,
      "\u0120murder": 4484,
      "\u0120leadership": 4485,
      "\u0120scientists": 4486,
      "\u0120ded": 4487,
      "iliar": 4488,
      "\u0120radio": 4489,
      "\u0120harm": 4490,
      "ey": 4491,
      "\u0120driving": 4492,
      "\u0120Since": 4493,
      "http": 4494,
      "\u0120UN": 4495,
      "\u0120experiment": 4496,
      "\u0120Que": 4497,
      "\u0120repeated": 4498,
      "win": 4499,
      "\u0120notes": 4500,
      "ST": 4501,
      "\u0120belief": 4502,
      "ulf": 4503,
      "\u0120Lab": 4504,
      "\u0120double": 4505,
      "\u0120FBI": 4506,
      "\u0120planning": 4507,
      "\u0120hair": 4508,
      "night": 4509,
      "\u0120believes": 4510,
      "\u0120Big": 4511,
      "\u0120PC": 4512,
      "\u0120Art": 4513,
      "\u0120Institute": 4514,
      "hem": 4515,
      "\u0120amb": 4516,
      "iful": 4517,
      "gypt": 4518,
      "spe": 4519,
      "\u0120Group": 4520,
      "IL": 4521,
      "\u0120cash": 4522,
      "\u0120Micro": 4523,
      "\u012090": 4524,
      "\u0120eat": 4525,
      "\u0120novel": 4526,
      "\u0120drugs": 4527,
      "55": 4528,
      "\u0120Carol": 4529,
      "andon": 4530,
      "\u0120Kh": 4531,
      "\u0120surface": 4532,
      "\u0120Mont": 4533,
      "point": 4534,
      "\u0120construction": 4535,
      "\u0120Ty": 4536,
      "\u0120bed": 4537,
      "itable": 4538,
      "\u0120fresh": 4539,
      "ario": 4540,
      "onto": 4541,
      "going": 4542,
      "\u0120negative": 4543,
      "\u0120witness": 4544,
      "\u0120trend": 4545,
      "lor": 4546,
      "iling": 4547,
      "\u0120charged": 4548,
      "\u0120commercial": 4549,
      "ipp": 4550,
      "\u0120Pri": 4551,
      "\u0120finding": 4552,
      "\u0120communities": 4553,
      "\u0120entirely": 4554,
      "\u0120solid": 4555,
      "\u0120largely": 4556,
      "\u0120conservative": 4557,
      "\u0120grant": 4558,
      "\u01202000": 4559,
      "ih": 4560,
      "\u0120worst": 4561,
      "ander": 4562,
      "\u0120Virgin": 4563,
      "\u0120occup": 4564,
      "\u0120holding": 4565,
      "\u0120Chris": 4566,
      "overy": 4567,
      "\u0120decade": 4568,
      "\u0120annual": 4569,
      "\u0120hus": 4570,
      "eline": 4571,
      "\u0120watching": 4572,
      "\u0120animals": 4573,
      "\u0120context": 4574,
      "\u0120Los": 4575,
      "\u0120Tim": 4576,
      "\u0120Army": 4577,
      "\u0120requires": 4578,
      "\u0120Supreme": 4579,
      "\u0120max": 4580,
      "\u0120cancer": 4581,
      "\u0120aspect": 4582,
      "\u0120justice": 4583,
      "\u0120transport": 4584,
      "\u0120discovered": 4585,
      "\u0120Fin": 4586,
      "\u0120san": 4587,
      "aks": 4588,
      "\u0120concerned": 4589,
      "\u0120conversation": 4590,
      "\u0120homes": 4591,
      "\u0120Miss": 4592,
      "\u0120tools": 4593,
      "\u0120Robert": 4594,
      "Americ": 4595,
      "cious": 4596,
      "\u0120Wil": 4597,
      "\u0120location": 4598,
      "which": 4599,
      "\u0120Ham": 4600,
      "ears": 4601,
      "\u0120housing": 4602,
      "\u0120direction": 4603,
      "\u0120ice": 4604,
      "\u0120please": 4605,
      "Photo": 4606,
      "\u0120Mer": 4607,
      "\u0120sleep": 4608,
      "azine": 4609,
      "!\u00e2\u0122\u013f": 4610,
      "\u0120launched": 4611,
      "\u0120bul": 4612,
      "\u0120Mexico": 4613,
      "lant": 4614,
      "\u0120allowing": 4615,
      "\u0120definitely": 4616,
      "works": 4617,
      "\u0120Sur": 4618,
      "\u0120suggested": 4619,
      "\u0120Association": 4620,
      "oted": 4621,
      "inct": 4622,
      "\u0120earth": 4623,
      "arant": 4624,
      "resp": 4625,
      "\u0120stock": 4626,
      "ource": 4627,
      "\u0120contain": 4628,
      "\u0120restaur": 4629,
      "\u0120rough": 4630,
      "\u0120tim": 4631,
      "isation": 4632,
      "\u0120length": 4633,
      "\u0120Ukrain": 4634,
      "\u0120floor": 4635,
      "\u0120smaller": 4636,
      "\u0120load": 4637,
      "owl": 4638,
      "ulated": 4639,
      "\u0120Like": 4640,
      "\u0120attend": 4641,
      "\u0120afford": 4642,
      "bing": 4643,
      "\u0120joined": 4644,
      "\u0120Islamic": 4645,
      "\u0120strateg": 4646,
      "\u0120established": 4647,
      "\u0120Gree": 4648,
      "\u0120truly": 4649,
      "\u0120Sil": 4650,
      "\u0120Are": 4651,
      "\u0120crew": 4652,
      "\u0120candidates": 4653,
      "\u0120nor": 4654,
      "\u0120solar": 4655,
      "\u0120Johnson": 4656,
      "annel": 4657,
      "\u0120raise": 4658,
      "\u0120award": 4659,
      "\u012070": 4660,
      "\u0120stopped": 4661,
      "\u0120placed": 4662,
      "\u0120telling": 4663,
      "but": 4664,
      "\u0120wel": 4665,
      "\u0120heat": 4666,
      "tered": 4667,
      "\u0120deliver": 4668,
      "47": 4669,
      "\":": 4670,
      "ortion": 4671,
      "\u0120offensive": 4672,
      "\u0120unit": 4673,
      "real": 4674,
      "\u0120shall": 4675,
      "ania": 4676,
      "\u0120waiting": 4677,
      "\u0120vehicle": 4678,
      "\u0120Ver": 4679,
      "ribe": 4680,
      "\u0120fle": 4681,
      "\u0120views": 4682,
      "More": 4683,
      "\u0120banks": 4684,
      "ici": 4685,
      "\u0120relatively": 4686,
      "ribute": 4687,
      "how": 4688,
      "Cl": 4689,
      "\u0120Mad": 4690,
      "met": 4691,
      "izes": 4692,
      "Image": 4693,
      "can": 4694,
      "ference": 4695,
      "\u0120caught": 4696,
      "\u0120providing": 4697,
      "\u0120testing": 4698,
      "\u0120recommend": 4699,
      "\u0120fuel": 4700,
      "\u0120plays": 4701,
      "phone": 4702,
      "\u0120missing": 4703,
      "\u0120kid": 4704,
      "\u00d1\u0123": 4705,
      "what": 4706,
      "\u0120Africa": 4707,
      "\u0120Prof": 4708,
      "oms": 4709,
      "igan": 4710,
      "\u00c3\u00a1": 4711,
      "anging": 4712,
      "\u0120concern": 4713,
      "\u0120spokesman": 4714,
      "\u0120useful": 4715,
      "\u0120failure": 4716,
      "\u0120exerc": 4717,
      "ctors": 4718,
      "\u0120spirit": 4719,
      "\u0120MP": 4720,
      "\u0120accur": 4721,
      "ossible": 4722,
      "ait": 4723,
      "rad": 4724,
      "\u0120Fox": 4725,
      "\u0120identified": 4726,
      "\u0120Japanese": 4727,
      "\u0120Bitcoin": 4728,
      "\u0120arrived": 4729,
      "\u0120strength": 4730,
      "\u0120older": 4731,
      "\u0120Direct": 4732,
      "48": 4733,
      "ansion": 4734,
      "itutional": 4735,
      "\u0120Louis": 4736,
      "vant": 4737,
      "\u0120La": 4738,
      "\u0120presence": 4739,
      "\u0120cells": 4740,
      "\u0120Tre": 4741,
      "mail": 4742,
      "\u0120Frank": 4743,
      "apped": 4744,
      "\u0120catch": 4745,
      "\u0120ge": 4746,
      "\u0120Team": 4747,
      "icon": 4748,
      "\u0120conclud": 4749,
      "aven": 4750,
      "\u0120Sol": 4751,
      "\u0120mentioned": 4752,
      "\u0120Angeles": 4753,
      "inter": 4754,
      "\u0120download": 4755,
      "\u0120activities": 4756,
      "cknow": 4757,
      "\u0120connection": 4758,
      "\u0120phil": 4759,
      "eah": 4760,
      "\u0120update": 4761,
      "vered": 4762,
      "\u0120Pak": 4763,
      "\u0120Windows": 4764,
      "ulate": 4765,
      "issions": 4766,
      "\u0120businesses": 4767,
      "\u0120background": 4768,
      "\u00e2\u0122\u013a": 4769,
      "umn": 4770,
      "\u0120guess": 4771,
      "\u0120Ac": 4772,
      "\u0120commission": 4773,
      "\u0120feels": 4774,
      "\u0120defensive": 4775,
      "verse": 4776,
      "ula": 4777,
      "49": 4778,
      "\u0120CEO": 4779,
      "\u0120Egypt": 4780,
      "\u0120consequ": 4781,
      "\u0120owner": 4782,
      "DA": 4783,
      "vention": 4784,
      "ocal": 4785,
      "gency": 4786,
      "azon": 4787,
      "\u0120planet": 4788,
      "\u0120Instead": 4789,
      "\u0120introduced": 4790,
      "ests": 4791,
      "66": 4792,
      "\u0120suggests": 4793,
      "\u0120Jose": 4794,
      "\u0120girls": 4795,
      "\u0120Jeff": 4796,
      "\u0120task": 4797,
      "andom": 4798,
      "\u0120south": 4799,
      "\u0120planned": 4800,
      "\u0120conflict": 4801,
      "isf": 4802,
      "aling": 4803,
      "\u0120Step": 4804,
      "\u0120scale": 4805,
      "suit": 4806,
      "\u0120Richard": 4807,
      "actions": 4808,
      "\u0120die": 4809,
      "\u0120setting": 4810,
      "!\"": 4811,
      "with": 4812,
      "\u0120highlight": 4813,
      "PA": 4814,
      "ym": 4815,
      "oman": 4816,
      "bour": 4817,
      "uct": 4818,
      "\u0120Fore": 4819,
      "\u0120blue": 4820,
      "CC": 4821,
      "\u0120marijuana": 4822,
      "\u0120decisions": 4823,
      "\u0120removed": 4824,
      "\u0120Leg": 4825,
      "aren": 4826,
      "ception": 4827,
      "\u0120Add": 4828,
      "Our": 4829,
      "PS": 4830,
      "itz": 4831,
      "\u0120steps": 4832,
      "NA": 4833,
      "\u0120academ": 4834,
      "\u0120dat": 4835,
      "adium": 4836,
      "\u0120Research": 4837,
      "\u0120committed": 4838,
      "olly": 4839,
      "ius": 4840,
      "asy": 4841,
      "oyal": 4842,
      "\u0120models": 4843,
      "rick": 4844,
      "\u0120hasn": 4845,
      "\u0120mere": 4846,
      "\u0120guard": 4847,
      "iser": 4848,
      "\u0120immigration": 4849,
      "wing": 4850,
      "\u0120taxes": 4851,
      "\u0120detect": 4852,
      "\u0120focused": 4853,
      "\u0120appropri": 4854,
      "\u0120Israeli": 4855,
      "icy": 4856,
      "\u0120skills": 4857,
      "\u0120supply": 4858,
      "EM": 4859,
      "ucky": 4860,
      "\u0120survey": 4861,
      "\u0120slightly": 4862,
      "semb": 4863,
      "Bl": 4864,
      "ups": 4865,
      "\u0120fant": 4866,
      "\u0120managed": 4867,
      "\u0120tells": 4868,
      "\u0120protection": 4869,
      "acks": 4870,
      "col": 4871,
      "ader": 4872,
      "\u0120roll": 4873,
      "\u0120interests": 4874,
      "\u0120newsp": 4875,
      "mas": 4876,
      "\u0120funds": 4877,
      "ocracy": 4878,
      "\u0120GOP": 4879,
      "BS": 4880,
      "Des": 4881,
      "\u0120gay": 4882,
      "\u0120Mat": 4883,
      "\u0120appoint": 4884,
      "\u0120spect": 4885,
      "\u01202005": 4886,
      "\u0120Inter": 4887,
      "\u0120farm": 4888,
      "\u0120Medic": 4889,
      "].": 4890,
      "\u0120Sub": 4891,
      "\u0120Although": 4892,
      "\u0120Mary": 4893,
      "\u01202018": 4894,
      "\u0120Met": 4895,
      "\u0120Rock": 4896,
      "\u0120obvious": 4897,
      "\u0120Service": 4898,
      "rees": 4899,
      "\u0120mobile": 4900,
      "uters": 4901,
      "\u0120rich": 4902,
      "\u0120Ryan": 4903,
      "\u0120nar": 4904,
      "\u0120beer": 4905,
      "kin": 4906,
      "\u0120neighborhood": 4907,
      "\u0120tests": 4908,
      "\u0120Government": 4909,
      "gar": 4910,
      "\u0120units": 4911,
      "\u0120aggress": 4912,
      "ronic": 4913,
      "\u0120measures": 4914,
      "\u0120Jones": 4915,
      "\u0120exchange": 4916,
      "place": 4917,
      "\u0120African": 4918,
      "iams": 4919,
      "\u0120acknow": 4920,
      "\u0120husband": 4921,
      "enses": 4922,
      "gn": 4923,
      "odies": 4924,
      "\u0120depend": 4925,
      "\u012032": 4926,
      "\u0120tough": 4927,
      "\u0120Jim": 4928,
      "\u0120accounts": 4929,
      "\u0120dropped": 4930,
      "\u0120prefer": 4931,
      "\u0120therefore": 4932,
      "54": 4933,
      "\u0120keeping": 4934,
      "\u0120flight": 4935,
      "rency": 4936,
      "\u0120fourth": 4937,
      "CA": 4938,
      "\u0120sust": 4939,
      "\u0120Martin": 4940,
      "eless": 4941,
      "\u0120Jewish": 4942,
      "cks": 4943,
      "\u0120capacity": 4944,
      "Le": 4945,
      "\u0120none": 4946,
      "\u0120identity": 4947,
      "war": 4948,
      "\u0120strike": 4949,
      "CH": 4950,
      "obby": 4951,
      "\u0120files": 4952,
      "uke": 4953,
      "\u0120stick": 4954,
      "\u0120trip": 4955,
      "icide": 4956,
      "\u0120otherwise": 4957,
      "\u00d1\u0122": 4958,
      "\u0120din": 4959,
      "\u0120figures": 4960,
      "\u0120religion": 4961,
      "ka": 4962,
      "\u0120decide": 4963,
      "\u0120territ": 4964,
      "\u0120initi": 4965,
      "\u0120circum": 4966,
      "\u0120photos": 4967,
      "\u0120disease": 4968,
      "\u0120gain": 4969,
      "\u0120Nor": 4970,
      "outs": 4971,
      "\u0120Ken": 4972,
      "\u0120princ": 4973,
      "\u0120authority": 4974,
      "stein": 4975,
      "ils": 4976,
      "\u0120Good": 4977,
      "uate": 4978,
      "ady": 4979,
      "odes": 4980,
      "\u0120killing": 4981,
      "dden": 4982,
      "\u0120assess": 4983,
      "\u0120corner": 4984,
      "lig": 4985,
      "\u0120standards": 4986,
      "\u0120PM": 4987,
      "\u0120appre": 4988,
      "\u0120\\": 4989,
      "\u0120filed": 4990,
      "\u0120CN": 4991,
      "\u0120attorney": 4992,
      "\u0120wish": 4993,
      "Why": 4994,
      "arsh": 4995,
      "\u0120graph": 4996,
      "\u0120discussion": 4997,
      "idering": 4998,
      "\u0120standing": 4999,
      "\u0120Palestin": 5000,
      "\u0120transform": 5001,
      "\u0120familiar": 5002,
      "\u0120Their": 5003,
      "osure": 5004,
      "\u0120operation": 5005,
      "\u0120famous": 5006,
      "\u0120la": 5007,
      "\u0120Thomas": 5008,
      "\u0120fellow": 5009,
      "agn": 5010,
      "\u0120partner": 5011,
      "\u0120twice": 5012,
      "\u0120Prime": 5013,
      "season": 5014,
      "aded": 5015,
      "\u0120scientific": 5016,
      "\u0120Toronto": 5017,
      "\u0120speaking": 5018,
      "\u0120subsc": 5019,
      "\u0120sports": 5020,
      "makers": 5021,
      "erous": 5022,
      "\u0120refuge": 5023,
      "enced": 5024,
      "\u0120professor": 5025,
      "\u0120weak": 5026,
      "\u0120transl": 5027,
      "95": 5028,
      "stream": 5029,
      "\u0120agencies": 5030,
      "\u0120factors": 5031,
      "\u0120collection": 5032,
      "bre": 5033,
      "\u0120Jud": 5034,
      "\u0120migr": 5035,
      "\u0120domestic": 5036,
      "\u0120amazing": 5037,
      "\u0120Ir": 5038,
      "\u0120stars": 5039,
      "\u0120cuts": 5040,
      "\u0120losing": 5041,
      "ynam": 5042,
      "\u0120alternative": 5043,
      "\u0120mental": 5044,
      "\u0120tack": 5045,
      "\u0120abuse": 5046,
      "\u0120cold": 5047,
      "\u0120helping": 5048,
      "hedul": 5049,
      "\u0120happening": 5050,
      "\u0120presented": 5051,
      "\u0120soldiers": 5052,
      "\u0120ultimately": 5053,
      "ancing": 5054,
      "onym": 5055,
      "\u0120multi": 5056,
      "ini": 5057,
      "\u0120Bern": 5058,
      "\u0120unless": 5059,
      "\u0120talks": 5060,
      "\u0120degree": 5061,
      "\u0120sudden": 5062,
      "Up": 5063,
      "\u0120sides": 5064,
      "isted": 5065,
      "\u0120Microsoft": 5066,
      "\u0120batter": 5067,
      "\u0120figh": 5068,
      "\u0120vast": 5069,
      "\u0120Two": 5070,
      "\u0120seconds": 5071,
      "\u0120Pre": 5072,
      "75": 5073,
      "\u0120prospect": 5074,
      "\u0120Const": 5075,
      "\u0120cas": 5076,
      "\u0120elements": 5077,
      "\u0120remind": 5078,
      "\u0120Mass": 5079,
      "\u0120votes": 5080,
      "\u0120veter": 5081,
      "prof": 5082,
      "\u0120army": 5083,
      "\u0120tast": 5084,
      "\u0120equip": 5085,
      "\u0120click": 5086,
      "\u0120College": 5087,
      "illa": 5088,
      "\u0120Android": 5089,
      "\u0120turns": 5090,
      "\u0120variety": 5091,
      "\u0120tweet": 5092,
      "\u0120pet": 5093,
      "ga": 5094,
      "\u0120corporate": 5095,
      "\u0120organizations": 5096,
      "ano": 5097,
      "\u0120fired": 5098,
      "\u0120paying": 5099,
      "DP": 5100,
      "\u0120covered": 5101,
      "rastructure": 5102,
      "itect": 5103,
      "\u0120Bur": 5104,
      "\u0120Us": 5105,
      "\u0120expert": 5106,
      "pm": 5107,
      "\u0120worry": 5108,
      "\u0120skin": 5109,
      "range": 5110,
      "\u0120impossible": 5111,
      "hens": 5112,
      "\u0120apply": 5113,
      "\u0120Carolina": 5114,
      "\u0120markets": 5115,
      "\u0120Secretary": 5116,
      "Pl": 5117,
      "\u0120Gar": 5118,
      "\u0120starts": 5119,
      "rd": 5120,
      "\u0120sport": 5121,
      "\u0120honest": 5122,
      "\u0120seeking": 5123,
      "Go": 5124,
      "\u0120finished": 5125,
      "\u0120injury": 5126,
      "uration": 5127,
      "\u0120shar": 5128,
      "\u0120minimum": 5129,
      "\u0120Images": 5130,
      "\u0120council": 5131,
      "\u0120thanks": 5132,
      "\u0120applications": 5133,
      "\u0120apparently": 5134,
      "rie": 5135,
      "\u0120Also": 5136,
      "\u0120environmental": 5137,
      "RA": 5138,
      "\u0120philos": 5139,
      "\u0124\u00ac": 5140,
      "aa": 5141,
      "\u0120Dec": 5142,
      "\u0120bigger": 5143,
      "TC": 5144,
      "\u0120intended": 5145,
      "\u0120ruling": 5146,
      "\u0120revolution": 5147,
      "agues": 5148,
      "\u0120sequ": 5149,
      "\u0120gar": 5150,
      "phas": 5151,
      "\u0120occurred": 5152,
      "\u0120possibility": 5153,
      "\u0120lived": 5154,
      "ashed": 5155,
      "31": 5156,
      "\u0120Spr": 5157,
      "\u0120arms": 5158,
      "\u0120vision": 5159,
      "\u0120guarant": 5160,
      "\u0120developers": 5161,
      "\u0120rapid": 5162,
      "iot": 5163,
      "\u0120USA": 5164,
      "\u0120Virginia": 5165,
      "gu": 5166,
      "\u0120scr": 5167,
      "roud": 5168,
      "Ab": 5169,
      "\u0120carried": 5170,
      "\u0120imagine": 5171,
      "oma": 5172,
      "\u0120Camp": 5173,
      "\u0120struct": 5174,
      "ores": 5175,
      "\u0120expensive": 5176,
      "\u0120fol": 5177,
      "\u0120Ari": 5178,
      "\u0120elim": 5179,
      "\u0120flow": 5180,
      "oston": 5181,
      "\u0120script": 5182,
      "\u0120experts": 5183,
      "Read": 5184,
      "that": 5185,
      "apers": 5186,
      "Last": 5187,
      "\u0120sounds": 5188,
      "\u0120sitting": 5189,
      "\u0120regarding": 5190,
      "Even": 5191,
      "\u01202004": 5192,
      "\u0120developing": 5193,
      "\u0120Sher": 5194,
      "kins": 5195,
      "isher": 5196,
      "\u0120schedul": 5197,
      "\u0120animal": 5198,
      "65": 5199,
      "\u0120innov": 5200,
      "look": 5201,
      "pret": 5202,
      "aine": 5203,
      "ava": 5204,
      "standing": 5205,
      "hand": 5206,
      "\u0120Central": 5207,
      "\u0120uns": 5208,
      "Trump": 5209,
      "\u0120Book": 5210,
      "\u0120Fire": 5211,
      "\u012045": 5212,
      "\u0120symb": 5213,
      "IV": 5214,
      "vis": 5215,
      "\u0120sch": 5216,
      "\u0120possibly": 5217,
      "\u0120streets": 5218,
      "Of": 5219,
      "\u0120Public": 5220,
      "\u0120Lat": 5221,
      "\u0120Plan": 5222,
      "related": 5223,
      "\u0120Gal": 5224,
      "From": 5225,
      "ita": 5226,
      "\u0120hate": 5227,
      "ployment": 5228,
      "cons": 5229,
      "\u0120increasingly": 5230,
      "\u0120absolutely": 5231,
      "inating": 5232,
      "yr": 5233,
      "\u0120healthy": 5234,
      "gers": 5235,
      "\u0120consult": 5236,
      "\u0120Conserv": 5237,
      "anda": 5238,
      "och": 5239,
      "ola": 5240,
      "\u0120Williams": 5241,
      "\u0120prosecut": 5242,
      "atures": 5243,
      "\u0120BBC": 5244,
      "\u0120instit": 5245,
      "Just": 5246,
      "odd": 5247,
      "\u0120adjust": 5248,
      "\u0120optim": 5249,
      "\u0120closer": 5250,
      "\u0120rid": 5251,
      "\u0120era": 5252,
      "uster": 5253,
      "\u0120bought": 5254,
      "\u0120sector": 5255,
      "\u0120broke": 5256,
      "\u0120odd": 5257,
      "\u0120plants": 5258,
      "\u0120union": 5259,
      "\u0120colle": 5260,
      "\u0120humans": 5261,
      "\u0120broken": 5262,
      "\u0120Syrian": 5263,
      "\u0120Those": 5264,
      "\u0120error": 5265,
      "\u0120pair": 5266,
      "\u0120elected": 5267,
      "rant": 5268,
      "\u0120ast": 5269,
      "apter": 5270,
      "\u0120troops": 5271,
      "\u0120estimated": 5272,
      "lets": 5273,
      "\u0120Pet": 5274,
      "ruption": 5275,
      "person": 5276,
      "SS": 5277,
      "under": 5278,
      "osen": 5279,
      "rible": 5280,
      "\u0120mut": 5281,
      "\u0120District": 5282,
      "\u0120writer": 5283,
      "\u0120tact": 5284,
      "\u0120Cur": 5285,
      "\u0120trail": 5286,
      "\u0120carbon": 5287,
      "\u0120fundament": 5288,
      "\u0120prepared": 5289,
      "olit": 5290,
      "anish": 5291,
      "\u0120Out": 5292,
      "\u0120Francisco": 5293,
      "\u0120equipment": 5294,
      "idden": 5295,
      "\u0120factor": 5296,
      "anche": 5297,
      "\u0120beautiful": 5298,
      "oty": 5299,
      "\u0120forms": 5300,
      "\u0120Middle": 5301,
      "\u0120During": 5302,
      "\u0120originally": 5303,
      "\u0120prime": 5304,
      "oving": 5305,
      "\u0120bringing": 5306,
      "\u00d0\u00be\u00d0": 5307,
      "\u0120changing": 5308,
      "\u0120Sl": 5309,
      "\u0120Last": 5310,
      "\u0120vul": 5311,
      "class": 5312,
      "\u0120pit": 5313,
      "\u0120conducted": 5314,
      "vey": 5315,
      "esterday": 5316,
      "\u0120fif": 5317,
      "\u0120stret": 5318,
      "\u0120;": 5319,
      "\u0120pages": 5320,
      "\u0120vehicles": 5321,
      "\u0120percentage": 5322,
      "\u0120selling": 5323,
      "ressive": 5324,
      "\u0120equal": 5325,
      "pay": 5326,
      "\u0120gender": 5327,
      "\u0120seasons": 5328,
      "alls": 5329,
      "\u0120Open": 5330,
      "\u0120privacy": 5331,
      "\u0120weapon": 5332,
      "run": 5333,
      "\u0120construct": 5334,
      "lyn": 5335,
      "\u0120chemical": 5336,
      "\u0120balance": 5337,
      "\u0120fra": 5338,
      "\u01201990": 5339,
      "\u0120Atlant": 5340,
      "porary": 5341,
      "\u0120Social": 5342,
      "\u0120Foundation": 5343,
      "olved": 5344,
      "\u0120quant": 5345,
      "\u0120Free": 5346,
      "\u0120voted": 5347,
      "Every": 5348,
      "\u0120heav": 5349,
      "\u0120refused": 5350,
      "\u0120responsibility": 5351,
      "\u0120infrastructure": 5352,
      "\u0120involve": 5353,
      "\u0120Once": 5354,
      "ours": 5355,
      "coh": 5356,
      "\u0120located": 5357,
      "\u0120Jon": 5358,
      "\u0120depart": 5359,
      "\u0120Amazon": 5360,
      "\u0120convention": 5361,
      "road": 5362,
      "\u0120sea": 5363,
      "\u0120Jo": 5364,
      "\u0120operating": 5365,
      "\u0120window": 5366,
      "\u0120sac": 5367,
      "\u0120proceed": 5368,
      "ureau": 5369,
      "\u0120THE": 5370,
      "reens": 5371,
      "\u0120remained": 5372,
      "lymp": 5373,
      "\u0120Jes": 5374,
      "\u0120surprise": 5375,
      "\u0120Tal": 5376,
      "\u0120university": 5377,
      "ologies": 5378,
      "den": 5379,
      "\u0120exclus": 5380,
      "ansas": 5381,
      "\u0120helps": 5382,
      "\u0120specifically": 5383,
      "\u0120apart": 5384,
      "\u0120sale": 5385,
      "\u0120ST": 5386,
      "ipping": 5387,
      "\u0120AN": 5388,
      "\u0120Who": 5389,
      "\u0120appearance": 5390,
      "Do": 5391,
      "endment": 5392,
      "\u0120distance": 5393,
      "\u0120aircraft": 5394,
      "icate": 5395,
      "\u0120offering": 5396,
      "\u0120positions": 5397,
      "\u0120pil": 5398,
      "\u0120ton": 5399,
      "ruit": 5400,
      "\u0120accident": 5401,
      "\u0120governments": 5402,
      "\u0120Den": 5403,
      "inent": 5404,
      "onna": 5405,
      "state": 5406,
      "\u0120Web": 5407,
      "\u0120pieces": 5408,
      "Well": 5409,
      "pired": 5410,
      "\u0120hurt": 5411,
      "\u0120observ": 5412,
      "\u0120appreci": 5413,
      "cean": 5414,
      "\u0120Wars": 5415,
      "\u0120Any": 5416,
      "\u0120Joe": 5417,
      "\u0120Lee": 5418,
      "\u0120univers": 5419,
      "pport": 5420,
      "________": 5421,
      ",[": 5422,
      "noon": 5423,
      "\u0120Peter": 5424,
      "ocking": 5425,
      "\u0120Sing": 5426,
      "\u0120remaining": 5427,
      "\u0120internal": 5428,
      "\u0120expressed": 5429,
      "uzz": 5430,
      "aniel": 5431,
      "Let": 5432,
      "etic": 5433,
      "\u0120Chief": 5434,
      "\u0120thoughts": 5435,
      "\u0120experienced": 5436,
      "LS": 5437,
      "\u0120shape": 5438,
      "\u0120expansion": 5439,
      "\u0120determine": 5440,
      "Ind": 5441,
      "olt": 5442,
      "\u0120secure": 5443,
      "centr": 5444,
      "\u0120Australian": 5445,
      "\u0120politicians": 5446,
      ",\u00e2\u0122\u013b": 5447,
      "orage": 5448,
      "\u0120revenue": 5449,
      "\u0120Haw": 5450,
      "()": 5451,
      "\u0120shift": 5452,
      "\u0120server": 5453,
      "\u0120perspect": 5454,
      "care": 5455,
      "\u0120glass": 5456,
      "life": 5457,
      "\u0120teen": 5458,
      "\u0120herself": 5459,
      "\u0120mort": 5460,
      "\u0120zone": 5461,
      "\u0120widely": 5462,
      "cos": 5463,
      "uit": 5464,
      "ros": 5465,
      "\u0120River": 5466,
      "ocol": 5467,
      "\u0120remove": 5468,
      "rawn": 5469,
      "\u0120elections": 5470,
      "mosp": 5471,
      "\u0120Both": 5472,
      "\u0120Under": 5473,
      "\u0120affected": 5474,
      "ION": 5475,
      "\u0120pointed": 5476,
      "\u0120greatest": 5477,
      "\u0120completed": 5478,
      "05": 5479,
      "mm": 5480,
      "\u0120marg": 5481,
      "\u0120Mel": 5482,
      "\u0120weren": 5483,
      "rier": 5484,
      "\u0120jail": 5485,
      "\u0120temperature": 5486,
      "\u0120minute": 5487,
      "ashion": 5488,
      "\u0120Federal": 5489,
      "oken": 5490,
      "ffee": 5491,
      "clusion": 5492,
      "\u0120predict": 5493,
      "\u0120renew": 5494,
      "\u0120Cath": 5495,
      "illance": 5496,
      "\u0120tourn": 5497,
      "\u0120master": 5498,
      "\u0120Rem": 5499,
      "anged": 5500,
      "\u0120potentially": 5501,
      "IG": 5502,
      "\u0120Rub": 5503,
      "\u0120Journal": 5504,
      "\u0120tight": 5505,
      "\u0120voting": 5506,
      "\u0120purchase": 5507,
      "46": 5508,
      "idel": 5509,
      "\u0120coord": 5510,
      "\u0120grew": 5511,
      "cel": 5512,
      "\u0120reporting": 5513,
      "\u0120emp": 5514,
      "\u0120earn": 5515,
      "ENT": 5516,
      "\u0120wearing": 5517,
      "\u0120ath": 5518,
      "\u0120dram": 5519,
      "\u0120facing": 5520,
      "\u0120argued": 5521,
      "razil": 5522,
      "\u0120handle": 5523,
      "\u0120talked": 5524,
      "gment": 5525,
      "unction": 5526,
      "\u0120frustr": 5527,
      "\u0120William": 5528,
      "isters": 5529,
      "\u0120fish": 5530,
      "\u01202001": 5531,
      "\u0120obviously": 5532,
      "\u0120faster": 5533,
      "....": 5534,
      "\u0120retail": 5535,
      "\u0120Guard": 5536,
      "LE": 5537,
      "edia": 5538,
      "\u0120recorded": 5539,
      "Pe": 5540,
      "\u0120wood": 5541,
      "],": 5542,
      "\u0120hyp": 5543,
      "\u0120Olymp": 5544,
      "useum": 5545,
      "\u0120belong": 5546,
      "\u0120copyright": 5547,
      "\u0120Daily": 5548,
      "\u0120thank": 5549,
      "\u0120Phot": 5550,
      "\u0120significantly": 5551,
      "\u0120cart": 5552,
      "\u0120Force": 5553,
      "ii": 5554,
      "ache": 5555,
      "\u0120plenty": 5556,
      "\u0120finish": 5557,
      "\u0120subs": 5558,
      "\u0120Afghanistan": 5559,
      "gen": 5560,
      "\u0120hun": 5561,
      "\u0120excited": 5562,
      "\u0120Prot": 5563,
      "edd": 5564,
      "\u0120thr": 5565,
      "\u0120NAS": 5566,
      "\u0120reduced": 5567,
      "\u0120combat": 5568,
      "\u0120agent": 5569,
      "ensions": 5570,
      "\u0120Boston": 5571,
      "\u0120GM": 5572,
      "\u0120indeed": 5573,
      "\u0120boost": 5574,
      "\u0120Time": 5575,
      "\u0120combined": 5576,
      "\u0120Yes": 5577,
      "First": 5578,
      "\u0120pulled": 5579,
      "\u0120considering": 5580,
      "\u0120proposal": 5581,
      "oral": 5582,
      "\u0120Fe": 5583,
      "\u0120Fed": 5584,
      "\u0120evening": 5585,
      "hy": 5586,
      "\u0120differences": 5587,
      "\u0120reporters": 5588,
      "\u0120Paris": 5589,
      "tion": 5590,
      "\u0120Ok": 5591,
      "\u0120afternoon": 5592,
      "\u0120mal": 5593,
      "\u0120yards": 5594,
      "usiness": 5595,
      "\u0120bound": 5596,
      "adow": 5597,
      "\u0120500": 5598,
      "\u0120treated": 5599,
      "Since": 5600,
      "\u0120visual": 5601,
      "ket": 5602,
      "essions": 5603,
      "\u0120challenges": 5604,
      "\u0120clot": 5605,
      "\u0120methods": 5606,
      "IP": 5607,
      "\u0120dream": 5608,
      "\u0120trouble": 5609,
      "\u0120tele": 5610,
      "\u0120que": 5611,
      "\u0120satisf": 5612,
      "\u0120prove": 5613,
      "\u0120industrial": 5614,
      "ompl": 5615,
      "\u0120surprising": 5616,
      "\u0120leads": 5617,
      "apping": 5618,
      "\u0120Mos": 5619,
      "\u0120basically": 5620,
      "\u0120guns": 5621,
      "\u0120package": 5622,
      "56": 5623,
      "tc": 5624,
      "\u0120crimes": 5625,
      "\u0120crack": 5626,
      "onom": 5627,
      "\u01202003": 5628,
      "\u0120suffered": 5629,
      "reland": 5630,
      "\u0120bodies": 5631,
      "\u0120stress": 5632,
      "\u0120random": 5633,
      "\u0120matters": 5634,
      "\u0120switch": 5635,
      "lines": 5636,
      "\u0120powers": 5637,
      "\u0120Cru": 5638,
      "\u0120hopes": 5639,
      "\u0120declared": 5640,
      "sen": 5641,
      "\u0120Put": 5642,
      "\u0120Please": 5643,
      "57": 5644,
      "istered": 5645,
      "\u0120cultural": 5646,
      "\u0120nut": 5647,
      "\u0120sem": 5648,
      "bur": 5649,
      "\u0120approved": 5650,
      "gl": 5651,
      "uous": 5652,
      "\u0120plus": 5653,
      "\u0120practices": 5654,
      "\u0120typically": 5655,
      "\u0120consumers": 5656,
      "\u0120burn": 5657,
      "\u0120signs": 5658,
      "\u0120turning": 5659,
      "\u0120Sant": 5660,
      "\u0120Mur": 5661,
      "\u0120upgr": 5662,
      "Over": 5663,
      "\u0120Lin": 5664,
      "\u0120Steve": 5665,
      "\u0120opposed": 5666,
      "hered": 5667,
      "\u0120confidence": 5668,
      "\u0120Show": 5669,
      "\u0120yes": 5670,
      "\u0120dismiss": 5671,
      "ownt": 5672,
      "\u0120Columb": 5673,
      "oking": 5674,
      "IM": 5675,
      "\u0120explo": 5676,
      "\u0120identify": 5677,
      "\u0120responded": 5678,
      "59": 5679,
      "\u0120Sum": 5680,
      "\u0120vulner": 5681,
      "\u0120films": 5682,
      "\u0120listen": 5683,
      "HL": 5684,
      "\u0120AT": 5685,
      "\u0120statements": 5686,
      "\u0120publicly": 5687,
      "\u0120denied": 5688,
      "arks": 5689,
      "ampion": 5690,
      "\u0120tun": 5691,
      "sts": 5692,
      "\u0120agents": 5693,
      "nell": 5694,
      "App": 5695,
      "\u0120Mem": 5696,
      "\u0120regime": 5697,
      "\u0120lit": 5698,
      "\u01201980": 5699,
      "\u0120ends": 5700,
      "\u0120approx": 5701,
      "His": 5702,
      "Another": 5703,
      "\u0120concentr": 5704,
      "CL": 5705,
      "\u0120dim": 5706,
      "\u0120spring": 5707,
      "aza": 5708,
      "umber": 5709,
      "aped": 5710,
      "OW": 5711,
      ">>": 5712,
      "\u0120instruct": 5713,
      "\u0120Lake": 5714,
      "\u0120governor": 5715,
      "\u0120passing": 5716,
      "razy": 5717,
      "\u0120datab": 5718,
      "zer": 5719,
      "\u0120supporting": 5720,
      "\u0120opportunities": 5721,
      "host": 5722,
      "\u0120flag": 5723,
      "\u0120married": 5724,
      "43": 5725,
      "\u0120weather": 5726,
      "\u0120subm": 5727,
      "\u0120reference": 5728,
      "\u0120id": 5729,
      "\u0120loved": 5730,
      "\u0120withd": 5731,
      "\u0120ordered": 5732,
      "uls": 5733,
      "eds": 5734,
      "\u0120institutions": 5735,
      "\u0120attempts": 5736,
      "pass": 5737,
      "\u0120default": 5738,
      "\u0120discl": 5739,
      "\u0120Color": 5740,
      "\u0120connected": 5741,
      "\u0120rent": 5742,
      "\u0120determined": 5743,
      "\u0120clim": 5744,
      "\u0120cloud": 5745,
      "\u0120injured": 5746,
      "respond": 5747,
      "\u0120react": 5748,
      "uations": 5749,
      "\u0120forg": 5750,
      "ilty": 5751,
      "\u0120technical": 5752,
      "\u0120updates": 5753,
      "pet": 5754,
      "41": 5755,
      "\u0120unable": 5756,
      "\u0120accompl": 5757,
      "\u0120motiv": 5758,
      "\u0120disappoint": 5759,
      "ller": 5760,
      "\u0120lawyer": 5761,
      "erry": 5762,
      "OD": 5763,
      "\u0120Ron": 5764,
      "\u0120Games": 5765,
      "ivered": 5766,
      "\u0120seriously": 5767,
      "\u0120panel": 5768,
      "\u0120Bat": 5769,
      "\u0120proced": 5770,
      "\u0120secretary": 5771,
      "\u0120ske": 5772,
      "ishes": 5773,
      "\u0120entertain": 5774,
      "\u0120confident": 5775,
      "\u0120Christmas": 5776,
      "ala": 5777,
      "\u0120struggle": 5778,
      "Sp": 5779,
      "\u0120lots": 5780,
      "\u0120baby": 5781,
      "ador": 5782,
      "abilities": 5783,
      "Cont": 5784,
      "law": 5785,
      "arl": 5786,
      "\u0120Brazil": 5787,
      "\u0120confirm": 5788,
      "\u0120movies": 5789,
      "\u0120dial": 5790,
      "\u0120Pac": 5791,
      "top": 5792,
      "\u0120batt": 5793,
      "\u0120Rel": 5794,
      "oves": 5795,
      "\u0120discrim": 5796,
      "TH": 5797,
      "42": 5798,
      "free": 5799,
      "\u0120filled": 5800,
      "\u0120buildings": 5801,
      "\u0120prompt": 5802,
      "\u0120brow": 5803,
      "ulations": 5804,
      "\u0120alias": 5805,
      "\u0120clin": 5806,
      "\u0120Power": 5807,
      "\u0120proud": 5808,
      "\u0120Rad": 5809,
      "\u0120suit": 5810,
      "\u0120ourselves": 5811,
      "\u0120eval": 5812,
      "\u0120broadcast": 5813,
      "Oh": 5814,
      "hab": 5815,
      "elly": 5816,
      "\u0120Island": 5817,
      "\u0120Pakistan": 5818,
      "\u0120breat": 5819,
      "\u0120songs": 5820,
      "\u0120Matt": 5821,
      "\u0120seat": 5822,
      "\u0120abandon": 5823,
      "uthors": 5824,
      "\u0120stands": 5825,
      "\u0120Barack": 5826,
      "\u0120trig": 5827,
      "\u0120craft": 5828,
      "\u0120ongoing": 5829,
      "\u0120Science": 5830,
      "\u0120coast": 5831,
      "\u0120contrast": 5832,
      "ributed": 5833,
      "\u0120atmosp": 5834,
      "\u0120collabor": 5835,
      "\u0120circumst": 5836,
      "\u0120mode": 5837,
      "evin": 5838,
      "etroit": 5839,
      "plom": 5840,
      "ellow": 5841,
      "\u0120advance": 5842,
      "\u0120tradition": 5843,
      "\u0120Michigan": 5844,
      "\u0120linked": 5845,
      "\u0120Vict": 5846,
      "\u0120giant": 5847,
      "\u0120Boy": 5848,
      "\u0120Dan": 5849,
      "ounded": 5850,
      "\u0120substant": 5851,
      "\u0120tur": 5852,
      "\u0120delay": 5853,
      "style": 5854,
      "\u0120IN": 5855,
      "\u0120Grand": 5856,
      "\u0120experiences": 5857,
      "audi": 5858,
      "\u0120advice": 5859,
      "ilit": 5860,
      "abin": 5861,
      "\u0120numerous": 5862,
      "\u0120calcul": 5863,
      "\u0120Get": 5864,
      "\u0120chart": 5865,
      "\u0120Ireland": 5866,
      "\u0120severe": 5867,
      "\u0120shouldn": 5868,
      "\u0120vari": 5869,
      "\u0120architect": 5870,
      "astern": 5871,
      "iat": 5872,
      "obe": 5873,
      "\u0120legit": 5874,
      "\u0120magazine": 5875,
      "\u0120creation": 5876,
      "\u0120aid": 5877,
      "\u0120Today": 5878,
      "\u0120editor": 5879,
      "During": 5880,
      "rich": 5881,
      "\u0120Penn": 5882,
      "\u0120Human": 5883,
      "\u0120explos": 5884,
      "\u0120videos": 5885,
      "\u0120admitted": 5886,
      "Rep": 5887,
      "\u0120tree": 5888,
      "ternal": 5889,
      "esc": 5890,
      "asp": 5891,
      "\u0120leaves": 5892,
      "ogue": 5893,
      "\u0120hol": 5894,
      "\u0120Yet": 5895,
      "\u0120diss": 5896,
      "\u0120edge": 5897,
      "\u0120messages": 5898,
      "\u0120Swed": 5899,
      "Although": 5900,
      "\u0120lie": 5901,
      "\u0120gather": 5902,
      "\u0120pray": 5903,
      "\u0120explan": 5904,
      ",'": 5905,
      "enger": 5906,
      "\u0120library": 5907,
      "\u0120writes": 5908,
      "\u0120forget": 5909,
      "called": 5910,
      "west": 5911,
      "esters": 5912,
      "\u0120capable": 5913,
      "\u0120increases": 5914,
      "ht": 5915,
      "\u0120drivers": 5916,
      "\u0120criticism": 5917,
      "\u0120Ill": 5918,
      "De": 5919,
      "imal": 5920,
      "\u0120subsequ": 5921,
      "\u0120sought": 5922,
      "\u012033": 5923,
      "\u0120newspaper": 5924,
      "inals": 5925,
      "\u0120incor": 5926,
      "\u0120System": 5927,
      "cohol": 5928,
      "itors": 5929,
      "unte": 5930,
      "\u0120prin": 5931,
      "\u0120Photo": 5932,
      "\u0120skill": 5933,
      "68": 5934,
      "\u0120emphas": 5935,
      "ooth": 5936,
      "\u0120Sky": 5937,
      "\u0120effectively": 5938,
      "TA": 5939,
      "\u0120declined": 5940,
      "Am": 5941,
      "\u0120Gen": 5942,
      "\u0120hell": 5943,
      "\u0120Andrew": 5944,
      "\u0120grab": 5945,
      "\u0120colon": 5946,
      "\u0120\u00ec": 5947,
      "\u0120gra": 5948,
      "acter": 5949,
      "resents": 5950,
      "dule": 5951,
      "\u0120realize": 5952,
      "\u0120transition": 5953,
      "\u0120suffering": 5954,
      "IF": 5955,
      "date": 5956,
      "nam": 5957,
      "\u0120mand": 5958,
      "icer": 5959,
      "estival": 5960,
      "\u0120valid": 5961,
      "\u0120Scot": 5962,
      "\u0120Society": 5963,
      "\u0120fraud": 5964,
      "PU": 5965,
      "\u0120Wal": 5966,
      "\u0120facts": 5967,
      "\u0120artist": 5968,
      "\u0120debut": 5969,
      "\u0120fly": 5970,
      "\u0120van": 5971,
      "\u0120boys": 5972,
      "Se": 5973,
      "stone": 5974,
      "usal": 5975,
      "\u0120reportedly": 5976,
      "\u0120picked": 5977,
      "\u0120surveillance": 5978,
      "ERS": 5979,
      "\u0120See": 5980,
      "\u0120metal": 5981,
      "\u0120emergency": 5982,
      "\u0120applied": 5983,
      "dis": 5984,
      "\u0120readers": 5985,
      "\u0120activists": 5986,
      "\u0120caption": 5987,
      "igure": 5988,
      "\u0120Stan": 5989,
      "\u0120enemy": 5990,
      "\u0120decre": 5991,
      "nergy": 5992,
      "\u0120delivered": 5993,
      "whel": 5994,
      "\u0120centre": 5995,
      "\u0120reaction": 5996,
      "Qu": 5997,
      "\u0120talent": 5998,
      "\u0120https": 5999,
      "abled": 6000,
      "\u0120manufacture": 6001,
      "def": 6002,
      "\u0120Road": 6003,
      "\u0120label": 6004,
      "Other": 6005,
      "\u0120advert": 6006,
      "MA": 6007,
      "say": 6008,
      "orse": 6009,
      "\u0120Turkey": 6010,
      "\u0120Director": 6011,
      "\u0120entered": 6012,
      "zona": 6013,
      "\u0120snow": 6014,
      "osite": 6015,
      "\u0120armed": 6016,
      "\u0120mir": 6017,
      "\u0120Bet": 6018,
      "\u0120fort": 6019,
      "\u0120youth": 6020,
      "\u0120remark": 6021,
      "\u0120Back": 6022,
      "opy": 6023,
      "\u0120vir": 6024,
      "\u0120spons": 6025,
      "\u0120missed": 6026,
      "\u0120resolution": 6027,
      "\u0120liberal": 6028,
      "\u0120Muslims": 6029,
      "\u0120phen": 6030,
      "PD": 6031,
      "\u0120examples": 6032,
      "\u0120Ukraine": 6033,
      "rid": 6034,
      "\u0120causes": 6035,
      "\u0120Jackson": 6036,
      "\u0120perspective": 6037,
      "oked": 6038,
      "\u0120Labour": 6039,
      "ua": 6040,
      "\u0120RE": 6041,
      "\u0120warned": 6042,
      "\u0120session": 6043,
      "\u0120shots": 6044,
      "\u0120Media": 6045,
      "\u0120lawsuit": 6046,
      "\u0120essentially": 6047,
      "\u0120doctor": 6048,
      "\u0120philosoph": 6049,
      "\u0120anx": 6050,
      "ican": 6051,
      "\u0120resident": 6052,
      "erm": 6053,
      "\u0120explains": 6054,
      "\u0120appropriate": 6055,
      "\u00c3\u0143": 6056,
      "\u0120alt": 6057,
      "\u0120discussed": 6058,
      "ato": 6059,
      "ena": 6060,
      "edy": 6061,
      "\u0120Davis": 6062,
      "\u0120quarterback": 6063,
      "Res": 6064,
      "\u0120sam": 6065,
      "formation": 6066,
      "\u0120Project": 6067,
      "\u0120terrorist": 6068,
      "\u0120square": 6069,
      "TV": 6070,
      "\u0120announcement": 6071,
      "Many": 6072,
      "\u0120findings": 6073,
      "\u0120violent": 6074,
      "\u0120pictures": 6075,
      "\u0120cann": 6076,
      "\u0120currency": 6077,
      "Can": 6078,
      "\u0120resc": 6079,
      "\u0120guilty": 6080,
      "\u0120nearby": 6081,
      "\u0120Ma": 6082,
      "anges": 6083,
      "asure": 6084,
      "\u0120Tra": 6085,
      "\u0120Prem": 6086,
      "\u0120suc": 6087,
      "\u0120walking": 6088,
      "Ob": 6089,
      "\u0120classes": 6090,
      "\u0120Space": 6091,
      "IR": 6092,
      "\u0120Walk": 6093,
      "\u0120jour": 6094,
      "\u0120neither": 6095,
      "\u0120excell": 6096,
      "\u0120iPh": 6097,
      "\u0120fairly": 6098,
      "oom": 6099,
      "enture": 6100,
      "\u0120Year": 6101,
      "08": 6102,
      "\u0120sad": 6103,
      "essor": 6104,
      "\u0120shop": 6105,
      "\u0120roughly": 6106,
      "\u0120prohib": 6107,
      "enda": 6108,
      "\u0120conscious": 6109,
      "Follow": 6110,
      "ugh": 6111,
      "\u0120perman": 6112,
      "\u0120desire": 6113,
      "\u0120contains": 6114,
      "\u00e2\u0122\u0136\u00e2\u0122\u0136\u00e2\u0122\u0136\u00e2\u0122\u0136\u00e2\u0122\u0136\u00e2\u0122\u0136\u00e2\u0122\u0136\u00e2\u0122\u0136": 6115,
      "\u0120thinks": 6116,
      "awn": 6117,
      "\u0120Ann": 6118,
      "\u0120faces": 6119,
      "\u0120pled": 6120,
      "\u0120scheduled": 6121,
      "\u0120yesterday": 6122,
      "\u0120Follow": 6123,
      "\u0120string": 6124,
      "58": 6125,
      "\u0120replaced": 6126,
      "\u0120Charl": 6127,
      "Donald": 6128,
      "\u0120joint": 6129,
      "erences": 6130,
      "\u0120abortion": 6131,
      "\u0120client": 6132,
      "\u0120quiet": 6133,
      "\u0120surprised": 6134,
      "\u0120boss": 6135,
      "\u012037": 6136,
      "\u0120investors": 6137,
      "\u0120ID": 6138,
      "xual": 6139,
      "ati": 6140,
      "arters": 6141,
      "\u0120sav": 6142,
      "\u0120flood": 6143,
      "\u0120element": 6144,
      "ideo": 6145,
      "American": 6146,
      "\u0120sharing": 6147,
      "\u0120argue": 6148,
      "Man": 6149,
      "kel": 6150,
      "\u0120interpret": 6151,
      "\u0120follows": 6152,
      "\u0120division": 6153,
      "\u0120af": 6154,
      "\u0120rail": 6155,
      "\u0120Hel": 6156,
      "\u0120Nov": 6157,
      "\u0120pra": 6158,
      "stood": 6159,
      "Then": 6160,
      "\u0120cooper": 6161,
      "\u0120importance": 6162,
      "orry": 6163,
      "arn": 6164,
      "\u0120emails": 6165,
      "\u0120correspond": 6166,
      "\u0120diplom": 6167,
      "\u0120nations": 6168,
      "\u0120Av": 6169,
      "\u012036": 6170,
      "\u0120everybody": 6171,
      "\u0120customer": 6172,
      "\u0120Squ": 6173,
      "\u0120island": 6174,
      "active": 6175,
      "\u0120faced": 6176,
      "\u0120ride": 6177,
      "\u0120button": 6178,
      "eration": 6179,
      "\u0120apps": 6180,
      "\u0120deaths": 6181,
      "\u0120begins": 6182,
      "TS": 6183,
      "bel": 6184,
      "\u0120Mount": 6185,
      "\u0120Kim": 6186,
      "\u0120heads": 6187,
      "\u0120performed": 6188,
      "\u0120featured": 6189,
      "PR": 6190,
      "\u0120initially": 6191,
      "\u0120accepted": 6192,
      "\u0120allegedly": 6193,
      "\u0120restaurant": 6194,
      "\u0120Read": 6195,
      "\u0120represents": 6196,
      "ez": 6197,
      "rip": 6198,
      "\u0120Rev": 6199,
      "\u0120articles": 6200,
      "\u0120Brook": 6201,
      "\u0120rein": 6202,
      "\u0120Its": 6203,
      "\u0120patient": 6204,
      "\u0120pitch": 6205,
      "\u0120Detroit": 6206,
      "\u0120pool": 6207,
      "\u0120totally": 6208,
      "ollywood": 6209,
      "Pol": 6210,
      "otic": 6211,
      "\u0120rain": 6212,
      "\u0120targets": 6213,
      "\u0120teachers": 6214,
      "\u00d9\u0130": 6215,
      "\u0120Bob": 6216,
      "\u0120Club": 6217,
      "\u0120CIA": 6218,
      "\u0120Techn": 6219,
      "\u0120listed": 6220,
      "\u0120Korean": 6221,
      "\u0120anywhere": 6222,
      "\u0120Ohio": 6223,
      "\u0120exercise": 6224,
      "irty": 6225,
      "aints": 6226,
      "\u0120offense": 6227,
      "\u0120cert": 6228,
      "\u0120storm": 6229,
      "abb": 6230,
      "\u0120objects": 6231,
      "\u0120grown": 6232,
      "\u0120rising": 6233,
      "\u0120Watch": 6234,
      "esh": 6235,
      "icious": 6236,
      "\u0120intention": 6237,
      "\u0120tech": 6238,
      "\u0120advanced": 6239,
      "rum": 6240,
      "\u0120strange": 6241,
      "Most": 6242,
      "\u0120storage": 6243,
      "athan": 6244,
      "\u0120franch": 6245,
      "\u0120ISIS": 6246,
      "ora": 6247,
      "word": 6248,
      "\u0120ing": 6249,
      "\u0120bon": 6250,
      "\u0120Aut": 6251,
      "acle": 6252,
      "\u0120heavily": 6253,
      "\u0120input": 6254,
      "\u0120laugh": 6255,
      "\u0120Land": 6256,
      "Com": 6257,
      "water": 6258,
      "erate": 6259,
      "\u0120dynam": 6260,
      "\u0120Sign": 6261,
      "\u0120Italy": 6262,
      "\u0120Cy": 6263,
      "\u0120warning": 6264,
      "icing": 6265,
      "\u0120nav": 6266,
      "II": 6267,
      "\u0120pure": 6268,
      "alian": 6269,
      "\u0120combination": 6270,
      "\u0120motion": 6271,
      "\u0120bull": 6272,
      "\u0120evolution": 6273,
      "\u0120younger": 6274,
      "\u0120materials": 6275,
      "arden": 6276,
      "\u0120buying": 6277,
      "certain": 6278,
      "print": 6279,
      "\u0120relevant": 6280,
      "\u0120studio": 6281,
      "\u0120Bell": 6282,
      "\u0120courts": 6283,
      "\u0120consumer": 6284,
      "\u0120entry": 6285,
      "\u0120existence": 6286,
      "\u0120Elect": 6287,
      "orders": 6288,
      "rence": 6289,
      "\u0120radical": 6290,
      "\u0120succeed": 6291,
      "\u0120adds": 6292,
      "\u0120Rights": 6293,
      "\u0120unem": 6294,
      "\u0120Str": 6295,
      "\u0120ancient": 6296,
      "ette": 6297,
      "\u0120Hy": 6298,
      "\u0120Hist": 6299,
      "\u0120300": 6300,
      "\u0120coffee": 6301,
      "\u0120warm": 6302,
      "\u0120hoping": 6303,
      "\u0120cheap": 6304,
      "\u0120plane": 6305,
      "\u0120symbol": 6306,
      "\u0120stood": 6307,
      "\u0120necessarily": 6308,
      "iest": 6309,
      "cho": 6310,
      "\u0120Wood": 6311,
      "ensus": 6312,
      "\u01202002": 6313,
      "UT": 6314,
      "\u0120tiny": 6315,
      "\u0120bare": 6316,
      "\u0120Aff": 6317,
      "\u0120Only": 6318,
      "\u0120creative": 6319,
      "\u0120expression": 6320,
      "Like": 6321,
      "ship": 6322,
      "agers": 6323,
      "\u0120Hen": 6324,
      "\u0120Fer": 6325,
      "\u0120Seattle": 6326,
      "\u0120promise": 6327,
      "long": 6328,
      "mates": 6329,
      "\u0120king": 6330,
      "\u0120holds": 6331,
      "\u0120empt": 6332,
      "fortunately": 6333,
      "\u0120intent": 6334,
      "erves": 6335,
      "\u0120serving": 6336,
      "\u0120Develop": 6337,
      "\u0120allegations": 6338,
      "ellect": 6339,
      "\u0120controversial": 6340,
      "illy": 6341,
      "\u0120sees": 6342,
      "\u0120somewhat": 6343,
      "\u0120sick": 6344,
      "\u0120Sov": 6345,
      "\u0120Long": 6346,
      "\u0120sets": 6347,
      "\u0120split": 6348,
      "\u0120output": 6349,
      "\u0120myster": 6350,
      "\u0120bike": 6351,
      "\u0120native": 6352,
      "\u0120shel": 6353,
      "\u0120extent": 6354,
      "\u0120consequences": 6355,
      "04": 6356,
      "Mar": 6357,
      "\u0120Hol": 6358,
      "\u0120threats": 6359,
      "\u0120domin": 6360,
      "\u0120cere": 6361,
      "\u0120crazy": 6362,
      "\u0120diet": 6363,
      "\u0120Arizona": 6364,
      "\u0120Work": 6365,
      "\u0120essential": 6366,
      "\u00d0\u00bb": 6367,
      "\u0120bond": 6368,
      "\u0120mine": 6369,
      "\u0120Saudi": 6370,
      "ima": 6371,
      "\u0120causing": 6372,
      "\u0120Ell": 6373,
      "\u0120blow": 6374,
      "\u0120usual": 6375,
      "\u0120owned": 6376,
      "\u0120meat": 6377,
      "\u0120brings": 6378,
      "\u0120classic": 6379,
      "\u0120embr": 6380,
      "uated": 6381,
      "\u0120overwhel": 6382,
      "\u0120Viet": 6383,
      "luding": 6384,
      "\u0120injuries": 6385,
      "\u0120consistent": 6386,
      "\u0120colleagues": 6387,
      "\u0120tournament": 6388,
      "iro": 6389,
      "\u0120immediate": 6390,
      "utch": 6391,
      "\u0120unus": 6392,
      "\u0120Georg": 6393,
      "\u0120protests": 6394,
      "\u0120democracy": 6395,
      "\u0120sentence": 6396,
      "\u0120unlikely": 6397,
      "born": 6398,
      "comm": 6399,
      "\u0120motor": 6400,
      "\u0120route": 6401,
      "\u0120Jul": 6402,
      "\u0120kit": 6403,
      "\u0120facility": 6404,
      "lv": 6405,
      "rison": 6406,
      "\u0120god": 6407,
      "duc": 6408,
      "ucks": 6409,
      "\u0120Enter": 6410,
      "See": 6411,
      "\u0120authors": 6412,
      "\u0120tow": 6413,
      "\u0120Charles": 6414,
      "\u012038": 6415,
      "\u0120row": 6416,
      "07": 6417,
      "Spe": 6418,
      "pan": 6419,
      "\u0120Board": 6420,
      "gent": 6421,
      "nic": 6422,
      "\u0120rum": 6423,
      "\u0120Div": 6424,
      "\u0120vice": 6425,
      "\u0120scored": 6426,
      "\u0120zero": 6427,
      "\u0120urban": 6428,
      "andal": 6429,
      "\u0120Life": 6430,
      "\u0120manage": 6431,
      "ometimes": 6432,
      "ologist": 6433,
      "Su": 6434,
      "ulous": 6435,
      "Or": 6436,
      "agan": 6437,
      "\u0120participants": 6438,
      "\u0120liqu": 6439,
      "\u0120Dou": 6440,
      "\u0120Asia": 6441,
      "\u0120Another": 6442,
      "\u0120closely": 6443,
      "=\"": 6444,
      "\u0120moral": 6445,
      "\u0120Network": 6446,
      "\u0120dedicated": 6447,
      "\u0120circumstances": 6448,
      "fire": 6449,
      "\u0120Card": 6450,
      "\u01201970": 6451,
      "\u0120acknowled": 6452,
      "\u0120wake": 6453,
      "\u0120NBA": 6454,
      "\u0120orders": 6455,
      "\u0120links": 6456,
      "\u0120fill": 6457,
      "\u0120moves": 6458,
      "\u0120functions": 6459,
      "\u0120Again": 6460,
      "\u0120historical": 6461,
      "\u0120Ms": 6462,
      "\u0120wear": 6463,
      "\u0120carrying": 6464,
      "98": 6465,
      "hus": 6466,
      "\u0120Econom": 6467,
      "apse": 6468,
      "\u0120acts": 6469,
      "\u0120stores": 6470,
      "hetic": 6471,
      "\u0120repeatedly": 6472,
      "\u0120Far": 6473,
      "\u012048": 6474,
      "\u0120distribution": 6475,
      "\u0120attempted": 6476,
      "52": 6477,
      "\u0120shif": 6478,
      "\u0120flat": 6479,
      "\u0120campus": 6480,
      "Two": 6481,
      "ixt": 6482,
      "\u012034": 6483,
      "\u0120versions": 6484,
      "\u0120Lib": 6485,
      "\u0120behavi": 6486,
      "\u0120comfortable": 6487,
      "\u0120tom": 6488,
      "\u0120confront": 6489,
      "\u0120Spanish": 6490,
      "\u0120alongside": 6491,
      "\u0120Rod": 6492,
      "\u0120Jr": 6493,
      "\u0120pushed": 6494,
      "People": 6495,
      "\u0120Win": 6496,
      "\u0120Each": 6497,
      "\u0120harder": 6498,
      "ouston": 6499,
      "\u0120downt": 6500,
      "\u0120struck": 6501,
      "CS": 6502,
      "\u0120sand": 6503,
      "\u0120rally": 6504,
      "\u0120reput": 6505,
      "\u0120Dev": 6506,
      "\u0120penal": 6507,
      "\u0120Jews": 6508,
      "\u0120surrounding": 6509,
      "\u0120fashion": 6510,
      "\u0120enh": 6511,
      "msg": 6512,
      "sembly": 6513,
      "\u0120phenomen": 6514,
      "))": 6515,
      "\u0120defined": 6516,
      "\u0120fewer": 6517,
      "iques": 6518,
      "\u0120Colorado": 6519,
      "02": 6520,
      "\u0120Men": 6521,
      "\u0120Gra": 6522,
      "\u0120trick": 6523,
      "\u0120networks": 6524,
      "\u0120terrorism": 6525,
      "foot": 6526,
      "\u0120marketing": 6527,
      "greg": 6528,
      "esome": 6529,
      "\u0120hits": 6530,
      "azz": 6531,
      "\u0120household": 6532,
      "\u0120nomine": 6533,
      "\u0120schol": 6534,
      "\u0120//": 6535,
      "amily": 6536,
      "awa": 6537,
      "\u0120commitment": 6538,
      "angers": 6539,
      "ocket": 6540,
      "\u0120parliament": 6541,
      "\u00c3\u00a4": 6542,
      "\u0120Lew": 6543,
      "\u0120passion": 6544,
      "\u0120suicide": 6545,
      "\u0120contest": 6546,
      "\u0120column": 6547,
      "\u0120forth": 6548,
      "\u0120earned": 6549,
      "iscons": 6550,
      "\u0120regulations": 6551,
      "\u0120?": 6552,
      "\u0120isol": 6553,
      "efully": 6554,
      "\u0120returns": 6555,
      "\u0120volunte": 6556,
      "isconsin": 6557,
      "\u0120Cub": 6558,
      "aug": 6559,
      "\u0120Polit": 6560,
      "\u0120adults": 6561,
      "\u0120narr": 6562,
      "\u0120Pan": 6563,
      "\u0120playoff": 6564,
      "\u0120hardware": 6565,
      "cus": 6566,
      "lock": 6567,
      "\u0120comparison": 6568,
      "77": 6569,
      "FP": 6570,
      "\u0120fixed": 6571,
      "\u0120detailed": 6572,
      "\u0120CNN": 6573,
      "\u0120Cat": 6574,
      "\u0120Way": 6575,
      "\u0120competitive": 6576,
      "\u0120walked": 6577,
      "gor": 6578,
      "\u0120lies": 6579,
      "olve": 6580,
      "\u0120Wat": 6581,
      "\u0120immigrants": 6582,
      "\u0120improved": 6583,
      "\u0120extract": 6584,
      "Int": 6585,
      "game": 6586,
      "\u0120Top": 6587,
      "\u0120Die": 6588,
      "\u0120winter": 6589,
      "\u0120pushing": 6590,
      "you": 6591,
      "\u0120hat": 6592,
      "\u0120describe": 6593,
      "\u0120frequently": 6594,
      "\u0120athlet": 6595,
      "mond": 6596,
      "\u0120Wild": 6597,
      "\u012049": 6598,
      "\u0120exception": 6599,
      "\u0120Romney": 6600,
      "\u0120iPhone": 6601,
      "\u0120journey": 6602,
      "\u0120promised": 6603,
      "\u0120Wilson": 6604,
      "\u0120subsid": 6605,
      "amin": 6606,
      "iger": 6607,
      "Get": 6608,
      "uable": 6609,
      "\u0120sister": 6610,
      "isms": 6611,
      "\u0120Lord": 6612,
      "\u0120syn": 6613,
      "\u0120favour": 6614,
      "06": 6615,
      "53": 6616,
      "\u0120manner": 6617,
      "DS": 6618,
      "\u00c5\u00a3": 6619,
      "\u0120kinds": 6620,
      "\u0120northern": 6621,
      "\u0120rot": 6622,
      "\u0120realized": 6623,
      "\u0120Image": 6624,
      "\u0120thread": 6625,
      "otal": 6626,
      "\u0120breaking": 6627,
      "\u0120Ap": 6628,
      "\u0120referred": 6629,
      "\u0120universe": 6630,
      "\u0120mainstream": 6631,
      "\u0120receiving": 6632,
      "\u0120waste": 6633,
      "\u0120alcohol": 6634,
      "avor": 6635,
      "\u0120territory": 6636,
      "\u0120Second": 6637,
      "\u0120latter": 6638,
      "\u0120database": 6639,
      "asks": 6640,
      "\u0120bright": 6641,
      "iami": 6642,
      "\u0120southern": 6643,
      "\u0120east": 6644,
      "\u0120Mot": 6645,
      "\u0120Week": 6646,
      "\u0120efficient": 6647,
      "\u0120precise": 6648,
      "\u0120formed": 6649,
      "\u0120desk": 6650,
      "\u0120inspired": 6651,
      "ingu": 6652,
      "\u0120Daniel": 6653,
      "\u0120doctors": 6654,
      "\u0120slowly": 6655,
      "twitter": 6656,
      "lder": 6657,
      "\u0120Ford": 6658,
      "\u0120Van": 6659,
      "\u0120pregn": 6660,
      "\u0120dealing": 6661,
      "uy": 6662,
      "\u0120west": 6663,
      "alle": 6664,
      "\u0120Energy": 6665,
      "\u0120assets": 6666,
      "\u0120hotel": 6667,
      "----------------": 6668,
      "\u0120wave": 6669,
      "\u0120TO": 6670,
      "oric": 6671,
      "oration": 6672,
      "\u0120Fort": 6673,
      "\u0120acting": 6674,
      "ocratic": 6675,
      "\u0120targeted": 6676,
      "aire": 6677,
      "arry": 6678,
      "\u0120Fil": 6679,
      "\u0120remote": 6680,
      "\u0120sym": 6681,
      "wan": 6682,
      "\u0120bug": 6683,
      "azi": 6684,
      "%)": 6685,
      "\u012042": 6686,
      "\u0120extended": 6687,
      "\u0120schedule": 6688,
      "\u0120punish": 6689,
      "\u0120Ram": 6690,
      "\u0120opponents": 6691,
      "\u0120knowing": 6692,
      "Despite": 6693,
      "\u0120ring": 6694,
      "\u0120risks": 6695,
      "\u0120literally": 6696,
      "\u0120chairman": 6697,
      "CE": 6698,
      "lies": 6699,
      "\u0120sample": 6700,
      "\u0120Nations": 6701,
      "\u0120pover": 6702,
      "\u0120guide": 6703,
      "****": 6704,
      "iciency": 6705,
      "ORE": 6706,
      "En": 6707,
      "\u0120flo": 6708,
      "\u0120merely": 6709,
      "\u0120Joseph": 6710,
      "\u0120narrow": 6711,
      "\u0120battery": 6712,
      "\u0120excellent": 6713,
      "ums": 6714,
      "\u0120anyway": 6715,
      "\u0120Vol": 6716,
      "\u0120moments": 6717,
      "\u0120Catholic": 6718,
      "78": 6719,
      "\u0120IT": 6720,
      "\u0120signing": 6721,
      "\u0120opposite": 6722,
      "\u0120approval": 6723,
      "\u0120employee": 6724,
      "\u0120soul": 6725,
      "iments": 6726,
      "\u0120Lu": 6727,
      "\u0120regional": 6728,
      "\u0120squad": 6729,
      "anes": 6730,
      "\u0120Exp": 6731,
      "\u0120escape": 6732,
      "\u0120blame": 6733,
      "\u0120retire": 6734,
      "\u0120Maybe": 6735,
      "iveness": 6736,
      "\u0120congress": 6737,
      "weight": 6738,
      "\u0120decline": 6739,
      "\u0120resistance": 6740,
      "kay": 6741,
      "\u0120artists": 6742,
      "inations": 6743,
      "ceived": 6744,
      "Yes": 6745,
      "\u0120noticed": 6746,
      "\u0120plot": 6747,
      "\u0120poverty": 6748,
      "\u0120selection": 6749,
      "\u0120uncle": 6750,
      "\u0120requests": 6751,
      "\u0120fundamental": 6752,
      "\u0120Py": 6753,
      "\u0120properly": 6754,
      "\u0120Jersey": 6755,
      "friend": 6756,
      "\u0120newslet": 6757,
      "\u0120somehow": 6758,
      "\u0120volume": 6759,
      "\u0120Valley": 6760,
      "chen": 6761,
      "\u0120Blue": 6762,
      "ographic": 6763,
      "03": 6764,
      "\u0120wins": 6765,
      "\u0120hur": 6766,
      "\u0120constant": 6767,
      "\u0120occasion": 6768,
      "\u0120sustain": 6769,
      "\u0120Jesus": 6770,
      "\u0120termin": 6771,
      "\u0120wage": 6772,
      "\u0120mouth": 6773,
      "aylor": 6774,
      "\u0120Sports": 6775,
      "\u012075": 6776,
      "\u0120enemies": 6777,
      "\u0120folks": 6778,
      "aka": 6779,
      "\u0120involving": 6780,
      "\u0120dogs": 6781,
      "\u0120pal": 6782,
      "\u0120aside": 6783,
      "\u0120category": 6784,
      "bar": 6785,
      "\u0120icon": 6786,
      "\u0120crash": 6787,
      "\u0120stream": 6788,
      "\u0120wire": 6789,
      "\u0120bag": 6790,
      "\u0120gap": 6791,
      "\u0120channel": 6792,
      "\u0120Palestinian": 6793,
      "\u0120worried": 6794,
      "\u0120observed": 6795,
      "\u0120electricity": 6796,
      "\u0120approximately": 6797,
      "sters": 6798,
      "\u0120chose": 6799,
      "\u0120Kevin": 6800,
      "\u0120locations": 6801,
      "\u0120requirements": 6802,
      "rors": 6803,
      "\u0120transp": 6804,
      "\u0120explore": 6805,
      "\u0120Cast": 6806,
      "\u0120deploy": 6807,
      "\u0120impressive": 6808,
      "\u0120village": 6809,
      "ipl": 6810,
      "\u0120wid": 6811,
      "\u0120lock": 6812,
      "\u0120discover": 6813,
      "\u0120cycle": 6814,
      "\u0120defeat": 6815,
      "bal": 6816,
      "adel": 6817,
      "chain": 6818,
      "\u0120Whe": 6819,
      "\u0120sho": 6820,
      "\u0120Er": 6821,
      "sm": 6822,
      "\u0120Best": 6823,
      "0000": 6824,
      "\u0120emissions": 6825,
      "\u0120topic": 6826,
      "\u0120critics": 6827,
      "\u0120Soviet": 6828,
      "inem": 6829,
      "\u0120alive": 6830,
      "51": 6831,
      "\u0120teacher": 6832,
      "\u0120egg": 6833,
      "\u0120ru": 6834,
      "88": 6835,
      "\u0120bunch": 6836,
      "\u0120Gi": 6837,
      "\u0120properties": 6838,
      "\u0120agenda": 6839,
      "\u0120obtained": 6840,
      "Tube": 6841,
      "burg": 6842,
      "\u0120matches": 6843,
      "cr": 6844,
      "\u0120county": 6845,
      "\u0120updated": 6846,
      "\u0120maximum": 6847,
      "\u0120Stephen": 6848,
      "\u0120conver": 6849,
      "\u0120champion": 6850,
      "\u0120depth": 6851,
      "\u0120protected": 6852,
      "\u0120mistake": 6853,
      "\u0120suddenly": 6854,
      "\u0120dry": 6855,
      "\u0120communication": 6856,
      "mes": 6857,
      "\u0120Home": 6858,
      "ca": 6859,
      "\u0120du": 6860,
      "\u0120retain": 6861,
      "\u0120Miller": 6862,
      "\u0120Wisconsin": 6863,
      "\u0120unknown": 6864,
      "\u0120stretch": 6865,
      "\u00e3\u0122": 6866,
      "\u0120iron": 6867,
      "\u0120bird": 6868,
      "\u0120hall": 6869,
      "\u0120Eric": 6870,
      "\u0120drawn": 6871,
      "OC": 6872,
      "\u0120sending": 6873,
      "\u0120honor": 6874,
      "\u0120Tit": 6875,
      "\u0120adapt": 6876,
      "axy": 6877,
      "\u0120installed": 6878,
      "\u0120deeply": 6879,
      "300": 6880,
      "aser": 6881,
      "\u0120bear": 6882,
      "obb": 6883,
      "\u0120registered": 6884,
      "GBT": 6885,
      "\u0120simpl": 6886,
      "\u0120sky": 6887,
      "Add": 6888,
      "\u0120eating": 6889,
      "\u0120Sar": 6890,
      "\u0120Hollywood": 6891,
      "\u0120selected": 6892,
      "list": 6893,
      "owered": 6894,
      "\u0120sole": 6895,
      "\u0120basket": 6896,
      "boy": 6897,
      "lla": 6898,
      "ems": 6899,
      "\u0120Administr": 6900,
      "anny": 6901,
      "PL": 6902,
      "\u0120puts": 6903,
      "\u0120arguments": 6904,
      "\u0120trading": 6905,
      "\u0120ruled": 6906,
      "nesota": 6907,
      "\u0120fake": 6908,
      "\u0120Civil": 6909,
      "\u0120Young": 6910,
      "\u0120communications": 6911,
      "\u0120scheme": 6912,
      "97": 6913,
      "\u0120AI": 6914,
      "\u0120Right": 6915,
      "\u0120allies": 6916,
      "\u0120attacked": 6917,
      "\u0120tested": 6918,
      "\u0120amounts": 6919,
      "\u0120watched": 6920,
      "owed": 6921,
      "\u0120Defense": 6922,
      "MS": 6923,
      "cers": 6924,
      "\u0120Houston": 6925,
      "asts": 6926,
      "han": 6927,
      "\u0120upcoming": 6928,
      "\u0120understood": 6929,
      "\u0120definition": 6930,
      "\u0120murd": 6931,
      "\u0120chain": 6932,
      "\u0120intellect": 6933,
      "\u0120protesters": 6934,
      "\u0120stronger": 6935,
      "\u0120emotional": 6936,
      "uilding": 6937,
      "va": 6938,
      "xy": 6939,
      "\u0120fuck": 6940,
      "\u0120desper": 6941,
      "\u00c3\u00b3": 6942,
      "isan": 6943,
      "\u0120fields": 6944,
      "ockey": 6945,
      "\u0120Victor": 6946,
      "Police": 6947,
      "\u0120gang": 6948,
      "\u0120imper": 6949,
      "\u0120fees": 6950,
      "\u0120Conf": 6951,
      "\u0120Business": 6952,
      "\u0120unw": 6953,
      "ordan": 6954,
      "anna": 6955,
      "\u0120employment": 6956,
      "\u0120recognize": 6957,
      "\u0120instru": 6958,
      "\u0120posts": 6959,
      "\u0120purposes": 6960,
      "\u0120license": 6961,
      "\u0120likes": 6962,
      "vy": 6963,
      "\u0120bat": 6964,
      "\u0120Dar": 6965,
      "\u0120trees": 6966,
      "\u0120journalists": 6967,
      "mod": 6968,
      "izz": 6969,
      "\u0120demands": 6970,
      "\u0120winner": 6971,
      "\u0120captured": 6972,
      "\u0120Steven": 6973,
      "\u0120Linux": 6974,
      "ko": 6975,
      "\u0120tort": 6976,
      "\u0120bid": 6977,
      "\u0120OF": 6978,
      "\u0120promote": 6979,
      "\u0120rape": 6980,
      "\u0120Brad": 6981,
      "owa": 6982,
      "\u0120strongly": 6983,
      "\u0120aspects": 6984,
      "rary": 6985,
      "\u0120neut": 6986,
      "\u0120phase": 6987,
      "ls": 6988,
      "\u0120Fair": 6989,
      "icken": 6990,
      "\u0120Agency": 6991,
      "\u0120flying": 6992,
      "\u0120anonym": 6993,
      "\u0120flu": 6994,
      "\u0120feedback": 6995,
      "ulture": 6996,
      "\u0120medic": 6997,
      "\u0120param": 6998,
      "\u0120welcome": 6999,
      "cript": 7000,
      "ker": 7001,
      "\u0120Cle": 7002,
      "\u0120profit": 7003,
      "May": 7004,
      "woman": 7005,
      "09": 7006,
      "Te": 7007,
      "\u0120Four": 7008,
      "\u0120exhib": 7009,
      "\u0120clar": 7010,
      "\u0120claiming": 7011,
      "\u0120constit": 7012,
      "\u0120reward": 7013,
      "\u0120finds": 7014,
      "\u0120Rog": 7015,
      "\u0120NY": 7016,
      "\u0120typical": 7017,
      "\u0120shares": 7018,
      "\u0120controls": 7019,
      "\u0120dollar": 7020,
      "ules": 7021,
      "\u0120Dam": 7022,
      "\u0120falling": 7023,
      "\u0120illustr": 7024,
      "\u0120($": 7025,
      "\u0120disag": 7026,
      "\u0120officially": 7027,
      "\u0120personally": 7028,
      "\u0120brew": 7029,
      "\u0120threatened": 7030,
      "regon": 7031,
      "\u0120contributed": 7032,
      "\u0120fasc": 7033,
      "ether": 7034,
      "pool": 7035,
      "tes": 7036,
      "\u0120height": 7037,
      "\u0120rub": 7038,
      "\u0120rival": 7039,
      "\u0120Stand": 7040,
      "\u012044": 7041,
      "phy": 7042,
      "\u0120purs": 7043,
      "\u0120Scotland": 7044,
      "itar": 7045,
      "\u0120gonna": 7046,
      "\u0120Dun": 7047,
      "\u0120Arch": 7048,
      "\u0120ped": 7049,
      "\u0120PS": 7050,
      "essed": 7051,
      "\u0120reasonable": 7052,
      "\u0120Columbia": 7053,
      "\u0120Miami": 7054,
      "\u0120Women": 7055,
      "Once": 7056,
      "osis": 7057,
      "\u0120regions": 7058,
      "\u0120empty": 7059,
      "inson": 7060,
      "\u0120constantly": 7061,
      "\u0120limits": 7062,
      "\u0120destroyed": 7063,
      "\u0120atmosphere": 7064,
      "Dr": 7065,
      "Rel": 7066,
      "\u0120inev": 7067,
      "ilarly": 7068,
      "\u0120Italian": 7069,
      "\u0120oblig": 7070,
      "\u0120corruption": 7071,
      "\u0120Dead": 7072,
      "\u0120facilities": 7073,
      "\u0120rejected": 7074,
      "\u0120franchise": 7075,
      "enth": 7076,
      "\u0120truck": 7077,
      "\u0120reporter": 7078,
      "\u0120houses": 7079,
      "\u0120gotten": 7080,
      "atell": 7081,
      "\u0120recon": 7082,
      "\u0120Irish": 7083,
      "hl": 7084,
      "lah": 7085,
      "\u0120plastic": 7086,
      "\u0120encourage": 7087,
      "obile": 7088,
      "\u0120inqu": 7089,
      "\u0120generate": 7090,
      "Fr": 7091,
      "\u0120dress": 7092,
      "\u0120Bowl": 7093,
      "\u0120End": 7094,
      "\u0120driven": 7095,
      "\u0120Water": 7096,
      "\u0120condem": 7097,
      "\u0120hyd": 7098,
      "bro": 7099,
      "rive": 7100,
      "\u0120Thank": 7101,
      "\u0120Championship": 7102,
      "\u0120letters": 7103,
      "\u0120magic": 7104,
      "\u0120Night": 7105,
      "\u0120supports": 7106,
      "\u0120NASA": 7107,
      "\u0120regularly": 7108,
      "\u0120possession": 7109,
      "iki": 7110,
      "\u0120meetings": 7111,
      "\u0120conven": 7112,
      "\u0120enthus": 7113,
      "\u0120drag": 7114,
      "\u0120fighters": 7115,
      "\u0120withdraw": 7116,
      "igation": 7117,
      "\u0120Down": 7118,
      "\u0120bitcoin": 7119,
      "\u0120answers": 7120,
      "\u0120incredibly": 7121,
      "rep": 7122,
      "\u0120deals": 7123,
      "fr": 7124,
      "\u0120pip": 7125,
      "\u0120profession": 7126,
      "\u0120Cruz": 7127,
      "\u0120Sk": 7128,
      "\u0120Cam": 7129,
      "ighter": 7130,
      "earing": 7131,
      "\u0120situations": 7132,
      "\u0120Academ": 7133,
      "Per": 7134,
      "bn": 7135,
      "\u0120newly": 7136,
      "raid": 7137,
      "sole": 7138,
      "\u0120Real": 7139,
      "mont": 7140,
      "iform": 7141,
      "\u0120primarily": 7142,
      "\u0120wal": 7143,
      "\u0120flex": 7144,
      "\u00e2\u0122\u012d": 7145,
      "abis": 7146,
      "\u0120contem": 7147,
      "\u0120visible": 7148,
      "\u0120Greek": 7149,
      "\u0120Camer": 7150,
      "ocation": 7151,
      "\u0120decent": 7152,
      "\u01201998": 7153,
      "redit": 7154,
      "\u0120choices": 7155,
      "\u0120exciting": 7156,
      "\u0120cup": 7157,
      "\u0120Moh": 7158,
      "\u0120Dark": 7159,
      "unning": 7160,
      "\u0120assume": 7161,
      "\u0120informed": 7162,
      "\u0120Author": 7163,
      "\u0120Mic": 7164,
      "\u0120hadn": 7165,
      "\u0120somewhere": 7166,
      "\u0120extensive": 7167,
      "\u0120academic": 7168,
      "SD": 7169,
      "\u0120Hind": 7170,
      "\u0120Minnesota": 7171,
      "\u0120Kingdom": 7172,
      "\u0120CD": 7173,
      "\u0120Old": 7174,
      "\u0120kil": 7175,
      "\u0120equival": 7176,
      "Any": 7177,
      "\u0120relationships": 7178,
      "idelines": 7179,
      "\u0120gro": 7180,
      "\u0120rig": 7181,
      "\u0120cutting": 7182,
      "Ed": 7183,
      "\u0120\u00e2\u0122\u013b": 7184,
      "star": 7185,
      "\u0120bench": 7186,
      "\u0120sweet": 7187,
      "\u0120upper": 7188,
      "\u0120Where": 7189,
      "\u0120outcome": 7190,
      "\u0120profile": 7191,
      "\u0120titles": 7192,
      "\u0120sanctions": 7193,
      "eping": 7194,
      "\u0120nobody": 7195,
      "ciples": 7196,
      "\u0120polls": 7197,
      "\u0120vacc": 7198,
      "rete": 7199,
      "\u0120chosen": 7200,
      "anchester": 7201,
      "igg": 7202,
      "\u0120estimates": 7203,
      "\u0120mayor": 7204,
      "\u0120captain": 7205,
      "\u0120controlled": 7206,
      "\u0120keeps": 7207,
      "\u0120engage": 7208,
      "\u0120sight": 7209,
      "\u0120components": 7210,
      "\u0120implementation": 7211,
      "uj": 7212,
      "\u0120myth": 7213,
      "\u0120apartment": 7214,
      "\u0120assistant": 7215,
      "\u0120taste": 7216,
      "\u0120gaming": 7217,
      "\u0120yield": 7218,
      "\u0120Company": 7219,
      "##": 7220,
      "\u0120proof": 7221,
      "\u0120unp": 7222,
      "\u0120anymore": 7223,
      "aze": 7224,
      "\u0120directed": 7225,
      "\u00d1\u0131": 7226,
      "\u0120occas": 7227,
      "\u0120teaching": 7228,
      "\u0120concluded": 7229,
      "\u0120Southern": 7230,
      "\u0120province": 7231,
      "\u0120Carl": 7232,
      "\u0120paint": 7233,
      "\u0120assistance": 7234,
      "name": 7235,
      "\u0120trib": 7236,
      "rehens": 7237,
      "\u0120Bru": 7238,
      "\u0120returning": 7239,
      "\u0120clubs": 7240,
      "%.": 7241,
      "Today": 7242,
      "\u0120worldwide": 7243,
      "\u0120terrible": 7244,
      "\u0120continuing": 7245,
      "RI": 7246,
      "\u0120comprom": 7247,
      "\u0120theme": 7248,
      "\u0120recovery": 7249,
      "\u0120YouTube": 7250,
      "\u0120routine": 7251,
      "\u0120Attorney": 7252,
      "67": 7253,
      "zens": 7254,
      "\u0120stuck": 7255,
      "\u0120ESP": 7256,
      "\u0120uncertain": 7257,
      "\u012039": 7258,
      "Inst": 7259,
      "\u0120ideal": 7260,
      "!!!!!!!!!!!!!!!!!!!!!!!!!!!!!!!!": 7261,
      "\u0120fifth": 7262,
      "\u00c2\u0134": 7263,
      "\u0120ties": 7264,
      "\u0120pic": 7265,
      "\u0120Id": 7266,
      "\u0120mo": 7267,
      "\u0120fir": 7268,
      "\u0120Inf": 7269,
      "\u0120developer": 7270,
      "\u0120Report": 7271,
      "\u0120resulting": 7272,
      "\u0120distinct": 7273,
      "\u0120mixed": 7274,
      "\u0120perfectly": 7275,
      "\u0120Putin": 7276,
      "\u0120goods": 7277,
      "iscal": 7278,
      "\u0120harass": 7279,
      "etary": 7280,
      "\u00e2\u0122\u013b.": 7281,
      "\u0120config": 7282,
      "\u01201999": 7283,
      "\u0120raising": 7284,
      "\u00c3\u00b6": 7285,
      "\u0120thin": 7286,
      "\u0120Pok": 7287,
      "\u0120somebody": 7288,
      "\u0120organized": 7289,
      "\u0120Adam": 7290,
      "\u0120degrees": 7291,
      "\u0120incredible": 7292,
      "\u0120infect": 7293,
      "\u0120virtual": 7294,
      "itarian": 7295,
      "lls": 7296,
      "\u0120compens": 7297,
      "gorith": 7298,
      "ked": 7299,
      "\u0120IP": 7300,
      "\u0120NBC": 7301,
      "\u0120emerged": 7302,
      "lahoma": 7303,
      "\u0120therap": 7304,
      "orne": 7305,
      "\u0120ble": 7306,
      "acc": 7307,
      "\u0120Has": 7308,
      "\u0120attended": 7309,
      "\u0120opponent": 7310,
      "\u0120mainly": 7311,
      "\u0120sufficient": 7312,
      "\u0120femin": 7313,
      "\u0120angry": 7314,
      "John": 7315,
      "\u0120Max": 7316,
      "\u0120Hot": 7317,
      "acking": 7318,
      "\u0120sharp": 7319,
      "emen": 7320,
      "\u0120exposed": 7321,
      "\u0120Di": 7322,
      "\u0120manip": 7323,
      "\u0120ticket": 7324,
      "\u0120pin": 7325,
      "\u0120recording": 7326,
      "\u0120narrative": 7327,
      "sea": 7328,
      "\u0120plug": 7329,
      "\u0120ending": 7330,
      "\u0120encoun": 7331,
      "oil": 7332,
      "\u0120habit": 7333,
      "\u0120prominent": 7334,
      "69": 7335,
      "\u0120Mah": 7336,
      "\u0120reveal": 7337,
      "\u00c3\u00a2": 7338,
      "celer": 7339,
      "acked": 7340,
      "\u0120proved": 7341,
      "aska": 7342,
      "\u0120explanation": 7343,
      "uine": 7344,
      "vin": 7345,
      "enders": 7346,
      "\u0120strict": 7347,
      "nov": 7348,
      "\u0120taught": 7349,
      "\u0120conclusion": 7350,
      "\u0120shit": 7351,
      "\u0120Series": 7352,
      "\u0120tor": 7353,
      "\u0120format": 7354,
      "\u0120Mars": 7355,
      "\u0120evil": 7356,
      "Also": 7357,
      "\u0120capture": 7358,
      "everal": 7359,
      "\u0120lawyers": 7360,
      "era": 7361,
      "\u0120entit": 7362,
      "\u0120founder": 7363,
      "\u0120Love": 7364,
      "\u0120Kat": 7365,
      "\u0120Kurd": 7366,
      "\u0120bills": 7367,
      "\u0120diagn": 7368,
      "\u0120parking": 7369,
      "ensity": 7370,
      "\u0120Spain": 7371,
      "\u0120engaged": 7372,
      "ML": 7373,
      "eda": 7374,
      "pected": 7375,
      "\u0120extrem": 7376,
      "\u0120Georgia": 7377,
      "omin": 7378,
      "\u0120excess": 7379,
      "\u0120Organ": 7380,
      "\u0120reputation": 7381,
      "\u0120stadium": 7382,
      "\u0120Invest": 7383,
      "\u0120boot": 7384,
      "rome": 7385,
      "\u0120negotiations": 7386,
      "\u0120FC": 7387,
      "\u0120Os": 7388,
      "\u0120Asian": 7389,
      "\u0120technologies": 7390,
      "\u0120elsewhere": 7391,
      "\u0120collected": 7392,
      "kish": 7393,
      "\u0120tied": 7394,
      "\u0120sacr": 7395,
      "\u0120Labor": 7396,
      "\u0120refugees": 7397,
      "',": 7398,
      "gender": 7399,
      "\u00d9\u0126": 7400,
      "\u0120deleg": 7401,
      "\u0120Oregon": 7402,
      "cut": 7403,
      "idency": 7404,
      "\u0120complicated": 7405,
      "\u0120complaint": 7406,
      "VER": 7407,
      "there": 7408,
      "\u0120elite": 7409,
      "raph": 7410,
      "\u0120regardless": 7411,
      "\u0120thousand": 7412,
      "\u0120granted": 7413,
      "iel": 7414,
      "\u0120tank": 7415,
      "oster": 7416,
      "\u0120Though": 7417,
      "\u0120crucial": 7418,
      "\u0120exists": 7419,
      "\u0120Thanks": 7420,
      "\u0120Prince": 7421,
      "\u00c3\u00bc": 7422,
      "\u0120Turn": 7423,
      "\u0120Sn": 7424,
      "ads": 7425,
      "ria": 7426,
      "inking": 7427,
      "\u0120accomp": 7428,
      "\u0120LGBT": 7429,
      "\u0120Ep": 7430,
      "intend": 7431,
      "hips": 7432,
      "\u0120visited": 7433,
      "\u0120Bas": 7434,
      "\u0120Emp": 7435,
      "allas": 7436,
      "\u0120Kent": 7437,
      "\u0120incl": 7438,
      "\u0120VR": 7439,
      "\u0120portion": 7440,
      "po": 7441,
      "ali": 7442,
      "ushed": 7443,
      "\u0120chances": 7444,
      "\u0120medium": 7445,
      "\u0120Iowa": 7446,
      "\u0120LA": 7447,
      "idesp": 7448,
      "\u0120tracks": 7449,
      "\u0120payments": 7450,
      "\u0120automatically": 7451,
      "\u0120tall": 7452,
      "usse": 7453,
      "\u0120championship": 7454,
      "\u0120Zeal": 7455,
      "idespread": 7456,
      "tle": 7457,
      "\u0120\u00ce": 7458,
      "\u0120duty": 7459,
      "ifications": 7460,
      "\u0120adopted": 7461,
      "urrent": 7462,
      "\u0120Kn": 7463,
      "iana": 7464,
      "\u0120techniques": 7465,
      "\u0120racial": 7466,
      "ao": 7467,
      "\u0120actor": 7468,
      "adelph": 7469,
      "lers": 7470,
      "\u0120Tw": 7471,
      "\u012041": 7472,
      "\u0120advis": 7473,
      "\u0120apolog": 7474,
      "ami": 7475,
      "\u0120DC": 7476,
      "\u0120Educ": 7477,
      "\u0120veget": 7478,
      "\u0120writers": 7479,
      "Because": 7480,
      "\u00d0\u00ba": 7481,
      "\u0120overse": 7482,
      "\u0120funny": 7483,
      "\u0120accurate": 7484,
      "\u0120western": 7485,
      "\u0120lawmakers": 7486,
      "\u0120weird": 7487,
      "agram": 7488,
      "\u0120inspir": 7489,
      "\u0120drinking": 7490,
      "ura": 7491,
      "86": 7492,
      "\u0120thick": 7493,
      "\u0120agric": 7494,
      "\u0120phr": 7495,
      "\u0120Despite": 7496,
      "\u0120Ark": 7497,
      "FA": 7498,
      "hent": 7499,
      "\u0120borrow": 7500,
      "\u0120mail": 7501,
      "\u0120Kelly": 7502,
      "\u0120compete": 7503,
      "\u0120Foreign": 7504,
      "\u0120penalty": 7505,
      "\u0120cited": 7506,
      "\u0120blind": 7507,
      "\u0120Brian": 7508,
      "\u0120deck": 7509,
      "\u0120marked": 7510,
      "\u0120Mu": 7511,
      "\u0120defence": 7512,
      "\u0120taxpay": 7513,
      "\u0120coalition": 7514,
      "\u0120unusual": 7515,
      "\u0120Taylor": 7516,
      "\u0120fought": 7517,
      "\u0120rating": 7518,
      "\u0120Nation": 7519,
      "\u0120Jac": 7520,
      "\u0120Jordan": 7521,
      "\u0120innoc": 7522,
      "\u0120Premier": 7523,
      "iner": 7524,
      "isp": 7525,
      "\u0120pace": 7526,
      "\u0120Avenue": 7527,
      "\u0120registr": 7528,
      "\u0120Sea": 7529,
      "gery": 7530,
      "\u0120nominee": 7531,
      "\u0120stead": 7532,
      "\u0120Josh": 7533,
      "\u0120dozen": 7534,
      "\u0120Stone": 7535,
      "\u0120stim": 7536,
      "\u0120Ut": 7537,
      "\u0120Senator": 7538,
      "\u0120aggressive": 7539,
      "Pr": 7540,
      "\u0120gall": 7541,
      "abama": 7542,
      "\u0120destruction": 7543,
      "87": 7544,
      "\u00d1\u0125": 7545,
      "istent": 7546,
      "\u0120monit": 7547,
      "BM": 7548,
      "RS": 7549,
      "igen": 7550,
      "\u0120Hun": 7551,
      "\u0120saved": 7552,
      "iban": 7553,
      "upid": 7554,
      "\u0120warming": 7555,
      "\u0120successfully": 7556,
      "\u0120busy": 7557,
      "\u0120estate": 7558,
      "\u0120machines": 7559,
      "Us": 7560,
      "pes": 7561,
      "writ": 7562,
      "herent": 7563,
      "front": 7564,
      "\u0120conspir": 7565,
      "\u012065": 7566,
      "\u0120solve": 7567,
      "da": 7568,
      "ogen": 7569,
      "\u00c5\u0141": 7570,
      "asters": 7571,
      "\u0120Bry": 7572,
      "ifies": 7573,
      "\u0120Oper": 7574,
      "\u01201996": 7575,
      "\u0120Services": 7576,
      "etts": 7577,
      "\u0120entering": 7578,
      "========": 7579,
      "\u0120Constitution": 7580,
      ".\"[": 7581,
      "\u0120depending": 7582,
      "\u0120cycl": 7583,
      "\u0120Roman": 7584,
      "cow": 7585,
      "\u0120Look": 7586,
      "\u0120creates": 7587,
      "Off": 7588,
      "inity": 7589,
      "\u0120fold": 7590,
      "\u0120Manchester": 7591,
      "umer": 7592,
      "\u01201960": 7593,
      "\u0120Before": 7594,
      "\u0120convicted": 7595,
      "imp": 7596,
      "\u0120warrant": 7597,
      "\u0120counsel": 7598,
      "\u0120historic": 7599,
      "\u0120seats": 7600,
      "\u0120spark": 7601,
      "ounced": 7602,
      "\u0120solutions": 7603,
      "adelphia": 7604,
      "\u0120stab": 7605,
      "\u0120Bull": 7606,
      "\u0120DNA": 7607,
      "\u0120OS": 7608,
      "ogan": 7609,
      "\u0120enorm": 7610,
      "\u012064": 7611,
      "\u0120astron": 7612,
      "\u0120Live": 7613,
      "\u0120losses": 7614,
      "\u0120sup": 7615,
      "\u0120principles": 7616,
      "rage": 7617,
      "\u0120bes": 7618,
      "\u0120stable": 7619,
      "quarters": 7620,
      "\u0120constitutional": 7621,
      "\u0120anticip": 7622,
      "\u0120enjoyed": 7623,
      "elect": 7624,
      "otes": 7625,
      "\u0120Scient": 7626,
      "oz": 7627,
      "heast": 7628,
      "acon": 7629,
      "\u0120disaster": 7630,
      "\u0120Veg": 7631,
      "\u0120extension": 7632,
      "\u0120Coast": 7633,
      "\u0120neighb": 7634,
      "\u0120crypt": 7635,
      "alo": 7636,
      "\u0120describes": 7637,
      "\u0120downtown": 7638,
      "\u0120Lewis": 7639,
      "\u0120->": 7640,
      "\u0120Albert": 7641,
      "\u0120journalist": 7642,
      "\u0120equivalent": 7643,
      "\u0120mel": 7644,
      "\u0120comic": 7645,
      "ibilities": 7646,
      "bec": 7647,
      "\u0120ju": 7648,
      "\u0120signal": 7649,
      "\u0120propag": 7650,
      "rypt": 7651,
      "\u0120minds": 7652,
      "\u0120Moore": 7653,
      "\u0120Oklahoma": 7654,
      "LA": 7655,
      "\u0120Ah": 7656,
      "\u0120spr": 7657,
      "\u0120obst": 7658,
      "\u0120permanent": 7659,
      "\u0120sympt": 7660,
      "\u0120Zealand": 7661,
      "85": 7662,
      "\u0120Come": 7663,
      "\u0120Hard": 7664,
      "\u0120Java": 7665,
      "\u012055": 7666,
      "\u0120formal": 7667,
      "\u0120expectations": 7668,
      "\u0120genuine": 7669,
      "\u0120afraid": 7670,
      "\u0120Care": 7671,
      "\u0120enable": 7672,
      "\u0120View": 7673,
      "aturally": 7674,
      "\u0120restrictions": 7675,
      "\u0120discipl": 7676,
      "\u0120valuable": 7677,
      "\u0120drawing": 7678,
      "\u0120dict": 7679,
      "imm": 7680,
      "\u0120array": 7681,
      "\u0120behalf": 7682,
      "\u0120fault": 7683,
      "\u0120recru": 7684,
      "ildren": 7685,
      "\u0120Tech": 7686,
      "\u0120aimed": 7687,
      "oured": 7688,
      "athy": 7689,
      "\u0120resulted": 7690,
      "\u0120manufacturing": 7691,
      "\u0120Walker": 7692,
      "urb": 7693,
      "\u0120Major": 7694,
      "\u0120computers": 7695,
      "\u0120tackle": 7696,
      "\u0120widespread": 7697,
      "\u0120Tem": 7698,
      "olen": 7699,
      "\u0120Ott": 7700,
      "\u012046": 7701,
      "\u0120represented": 7702,
      "making": 7703,
      "\u0120bom": 7704,
      "\u012047": 7705,
      "\u0120cameras": 7706,
      "\u0120minority": 7707,
      "\u0120anxiety": 7708,
      "ml": 7709,
      "\u0120PR": 7710,
      "throp": 7711,
      "\u0120shortly": 7712,
      "\u0120Eastern": 7713,
      "\u0120hole": 7714,
      "\u0120Take": 7715,
      "\u0120payment": 7716,
      "\u0120reduction": 7717,
      "she": 7718,
      "\u0120passes": 7719,
      "usive": 7720,
      "uma": 7721,
      "\u0120phones": 7722,
      "\u0120foundation": 7723,
      "\u0120progressive": 7724,
      "\u0120Mid": 7725,
      "\u0120finance": 7726,
      "\u0120recognition": 7727,
      "\u0120struggling": 7728,
      "\u0120strikes": 7729,
      "\u0120unemployment": 7730,
      "\u0120layer": 7731,
      "\u0120philosophy": 7732,
      "orough": 7733,
      "ouver": 7734,
      "\u0120Foot": 7735,
      "\u0120Parliament": 7736,
      "\u0120Contin": 7737,
      "\u0120Latin": 7738,
      "fast": 7739,
      "\u0120\u00e2\u0122\u00a2": 7740,
      "\u0120collapse": 7741,
      "ye": 7742,
      "ione": 7743,
      "\u0120Reuters": 7744,
      "96": 7745,
      "\u0120intense": 7746,
      "angel": 7747,
      "\u0120Academy": 7748,
      "itals": 7749,
      "\u0120bail": 7750,
      "\u0120algorith": 7751,
      "\u0120troub": 7752,
      "\u0120ESPN": 7753,
      "\u0120tox": 7754,
      "\u0120Global": 7755,
      "\u0120corporations": 7756,
      "\u0120Disney": 7757,
      "mal": 7758,
      "ilipp": 7759,
      "Mean": 7760,
      "viously": 7761,
      "\u0120Northern": 7762,
      "\u0120recip": 7763,
      "\u0120root": 7764,
      "\u0120avo": 7765,
      "\u0120magn": 7766,
      "\u0120loud": 7767,
      "text": 7768,
      "\u0120founded": 7769,
      "sylv": 7770,
      "\u0120Administration": 7771,
      "\u0120hidden": 7772,
      "\u0120Tony": 7773,
      "\u0120Navy": 7774,
      "\u0120branch": 7775,
      "\u0120personnel": 7776,
      "\u0120150": 7777,
      "\u0120loan": 7778,
      "\u0120scenes": 7779,
      "ras": 7780,
      "\u00d8\u00a7": 7781,
      "\u0120Cross": 7782,
      "\u0120rapidly": 7783,
      "\u0120Pacific": 7784,
      "\u0120ven": 7785,
      "otted": 7786,
      "\u0120operate": 7787,
      "\u0120principle": 7788,
      "athered": 7789,
      "\u0120spin": 7790,
      "\u0120roster": 7791,
      "\u0120producing": 7792,
      "ependent": 7793,
      "Ne": 7794,
      "\u0120hired": 7795,
      "\u0120Mir": 7796,
      "\u0120Food": 7797,
      "\u012043": 7798,
      "\u0120Alabama": 7799,
      "\u0120privile": 7800,
      "Rec": 7801,
      "ormon": 7802,
      "\u0120milk": 7803,
      "\u0120audio": 7804,
      "\u0120scenario": 7805,
      "NE": 7806,
      "\u0120bath": 7807,
      "\u0120Kir": 7808,
      "\u0120blocks": 7809,
      "\u0120consumption": 7810,
      "\u0120civilians": 7811,
      "Col": 7812,
      "\u0120crop": 7813,
      "etime": 7814,
      "\u0120Hom": 7815,
      "ancouver": 7816,
      "portion": 7817,
      "\u0120engineering": 7818,
      "\u0120awesome": 7819,
      "ulating": 7820,
      "\u0120Ray": 7821,
      "\u0120generated": 7822,
      "\u0120scores": 7823,
      "\u0120veteran": 7824,
      "\u0120discrimination": 7825,
      "::": 7826,
      "ni": 7827,
      "world": 7828,
      "\u0120satell": 7829,
      "achus": 7830,
      "\u0120producer": 7831,
      "\u0120Ra": 7832,
      "teen": 7833,
      "ystem": 7834,
      "\u0120cos": 7835,
      "\u0120Rick": 7836,
      "odox": 7837,
      "\u0120elig": 7838,
      "\u0120baseball": 7839,
      "\u0120pilot": 7840,
      "\u0120laid": 7841,
      "eland": 7842,
      "thew": 7843,
      "\u0120Policy": 7844,
      "\u0120ridic": 7845,
      "\u0120firms": 7846,
      "\u0120tap": 7847,
      "\u0120elev": 7848,
      "\u0120prote": 7849,
      "Getty": 7850,
      "\u0120euro": 7851,
      "\u0120Field": 7852,
      "this": 7853,
      "\u0120relief": 7854,
      "\u0120domain": 7855,
      "\u0120rarely": 7856,
      "from": 7857,
      "aron": 7858,
      "\u0120hang": 7859,
      "uties": 7860,
      "away": 7861,
      "\u0120participate": 7862,
      "\u0120Thus": 7863,
      "\u0120arrange": 7864,
      "\u0120worker": 7865,
      "\u0120citizen": 7866,
      "\u0120steel": 7867,
      "\u0120Conservative": 7868,
      "NC": 7869,
      "\u0120Pen": 7870,
      "umin": 7871,
      "\u0120component": 7872,
      "AA": 7873,
      "\u0120recognized": 7874,
      "\u0120util": 7875,
      "sylvania": 7876,
      "reams": 7877,
      "\u0120Fred": 7878,
      "\u0120contracts": 7879,
      "\u0120aver": 7880,
      "isk": 7881,
      "ouch": 7882,
      "\u0120400": 7883,
      "\u0120processes": 7884,
      "scape": 7885,
      "\u0120Development": 7886,
      "Sec": 7887,
      "\u0120Ins": 7888,
      "\u0120Budd": 7889,
      "mann": 7890,
      "\u0120explicit": 7891,
      "\u0120Program": 7892,
      "\u0120footage": 7893,
      "\u0120Harry": 7894,
      "\u0120permission": 7895,
      "amac": 7896,
      "\u0120uncom": 7897,
      "\u0120physic": 7898,
      "\u0120association": 7899,
      "\u0120Note": 7900,
      "thony": 7901,
      "antic": 7902,
      "\u0120everywhere": 7903,
      "\u0120carefully": 7904,
      "\u0120websites": 7905,
      "\u0120settlement": 7906,
      "\u0120patterns": 7907,
      "iti": 7908,
      "\u0120exposure": 7909,
      "\u0120begun": 7910,
      "\".[": 7911,
      "\u0120ships": 7912,
      "ologists": 7913,
      "\u0120dinner": 7914,
      "\u0120Taliban": 7915,
      "\u0120intellectual": 7916,
      "onic": 7917,
      "\u0120SP": 7918,
      "\u0120Pay": 7919,
      "\u0120Lyn": 7920,
      "\u0120clients": 7921,
      "\u0120suggesting": 7922,
      "\u0120Snow": 7923,
      "\u0120Nick": 7924,
      "Before": 7925,
      "\u0120Ol": 7926,
      "\u0120invent": 7927,
      "\u0120Market": 7928,
      "\u0120CO": 7929,
      "\u01201997": 7930,
      "car": 7931,
      "fall": 7932,
      "\u0120ho": 7933,
      "\u0120stations": 7934,
      "month": 7935,
      "\u0120Test": 7936,
      "\u0120jury": 7937,
      "weet": 7938,
      "\u0120smooth": 7939,
      "bell": 7940,
      "uce": 7941,
      "\u0120programming": 7942,
      "\u0120cable": 7943,
      "\u0120foss": 7944,
      "arlier": 7945,
      "ifest": 7946,
      "\u0120sugar": 7947,
      "\u0120dozens": 7948,
      "\u0120Still": 7949,
      "\u0120Ash": 7950,
      "\u0120liked": 7951,
      "\u0120lists": 7952,
      "\u0120NSA": 7953,
      "\u0120Special": 7954,
      "\u0120Philadelphia": 7955,
      "achusetts": 7956,
      "post": 7957,
      "ashes": 7958,
      "\u0120involvement": 7959,
      "\u0120distr": 7960,
      "\u0120headed": 7961,
      "who": 7962,
      "\u0120neighbour": 7963,
      "\u0120ocean": 7964,
      "izon": 7965,
      "log": 7966,
      "\u0120feelings": 7967,
      "\u0120Fund": 7968,
      "\u0120campaigns": 7969,
      "\u0120electronic": 7970,
      "\u0120deeper": 7971,
      "\u0120terrorists": 7972,
      "\u0120normally": 7973,
      "\u0120NHL": 7974,
      "quest": 7975,
      "\u0120soil": 7976,
      "aching": 7977,
      "\u0120Arm": 7978,
      "\u0120deputy": 7979,
      "\u0120cyber": 7980,
      "abinet": 7981,
      "\u0120advertising": 7982,
      "Co": 7983,
      "Dav": 7984,
      "\u0120sin": 7985,
      "\u0120photograph": 7986,
      "\u0120wonderful": 7987,
      "\u0120casual": 7988,
      "\u0120hide": 7989,
      "\u0120HT": 7990,
      "\u0120Ret": 7991,
      "\u0120rose": 7992,
      "\u0120forever": 7993,
      "\u0120deliber": 7994,
      "\u0120vulnerable": 7995,
      "found": 7996,
      "\u0120Lind": 7997,
      "\u0120uniform": 7998,
      "\u0120smoke": 7999,
      "\u0120Music": 8000,
      "\u0120subjects": 8001,
      "\u0120establishment": 8002,
      "400": 8003,
      "\u0120Nob": 8004,
      "\u0120invited": 8005,
      "ixon": 8006,
      "\u0120beliefs": 8007,
      "amacare": 8008,
      "gun": 8009,
      "\u0120pod": 8010,
      "\u0120Call": 8011,
      "lan": 8012,
      "uan": 8013,
      "\u0120Gall": 8014,
      "interest": 8015,
      "\u0120scoring": 8016,
      "\u0120brut": 8017,
      "\u0120Review": 8018,
      "engers": 8019,
      "\u0120Brother": 8020,
      "\u0120overwhelming": 8021,
      "\u0120rely": 8022,
      "\u0120MS": 8023,
      "\u0120asks": 8024,
      "\u0120iP": 8025,
      "oen": 8026,
      "amber": 8027,
      "\u0120Oak": 8028,
      "rous": 8029,
      "Note": 8030,
      "\u0120gained": 8031,
      "ilton": 8032,
      "\u0120ads": 8033,
      "rett": 8034,
      "\u0120sensitive": 8035,
      "\u0120Diego": 8036,
      "\u0120tip": 8037,
      "\u0120Tour": 8038,
      "sex": 8039,
      "\u0120shock": 8040,
      "Meanwhile": 8041,
[...]
